{
  "0": "\u0000",
  "1": "\u0001",
  "2": "\u0002",
  "3": "\u0003",
  "4": "\u0004",
  "5": "\u0005",
  "6": "\u0006",
  "7": "\u0007",
  "8": "\b",
  "9": "\t",
  "10": "\n",
  "11": "\u000b",
  "12": "\f",
  "13": "\r",
  "14": "\u000e",
  "15": "\u000f",
  "16": "\u0010",
  "17": "\u0011",
  "18": "\u0012",
  "19": "\u0013",
  "20": "\u0014",
  "21": "\u0015",
  "22": "\u0016",
  "23": "\u0017",
  "24": "\u0018",
  "25": "\u0019",
  "26": "\u001a",
  "27": "\u001b",
  "28": "\u001c",
  "29": "\u001d",
  "30": "\u001e",
  "31": "\u001f",
  "32": " ",
  "33": "!",
  "34": "\"",
  "35": "#",
  "36": "$",
  "37": "%",
  "38": "&",
  "39": "'",
  "40": "(",
  "41": ")",
  "42": "*",
  "43": "+",
  "44": ",",
  "45": "-",
  "46": ".",
  "47": "/",
  "48": "0",
  "49": "1",
  "50": "2",
  "51": "3",
  "52": "4",
  "53": "5",
  "54": "6",
  "55": "7",
  "56": "8",
  "57": "9",
  "58": ":",
  "59": ";",
  "60": "<",
  "61": "=",
  "62": ">",
  "63": "?",
  "64": "@",
  "65": "A",
  "66": "B",
  "67": "C",
  "68": "D",
  "69": "E",
  "70": "F",
  "71": "G",
  "72": "H",
  "73": "I",
  "74": "J",
  "75": "K",
  "76": "L",
  "77": "M",
  "78": "N",
  "79": "O",
  "80": "P",
  "81": "Q",
  "82": "R",
  "83": "S",
  "84": "T",
  "85": "U",
  "86": "V",
  "87": "W",
  "88": "X",
  "89": "Y",
  "90": "Z",
  "91": "[",
  "92": "\\",
  "93": "]",
  "94": "^",
  "95": "_",
  "96": "`",
  "97": "a",
  "98": "b",
  "99": "c",
  "100": "d",
  "101": "e",
  "102": "f",
  "103": "g",
  "104": "h",
  "105": "i",
  "106": "j",
  "107": "k",
  "108": "l",
  "109": "m",
  "110": "n",
  "111": "o",
  "112": "p",
  "113": "q",
  "114": "r",
  "115": "s",
  "116": "t",
  "117": "u",
  "118": "v",
  "119": "w",
  "120": "x",
  "121": "y",
  "122": "z",
  "123": "{",
  "124": "|",
  "125": "}",
  "126": "~",
  "127": "",
  "128": "",
  "129": "",
  "130": "",
  "131": "",
  "132": "",
  "133": "",
  "134": "",
  "135": "",
  "136": "",
  "137": "",
  "138": "",
  "139": "",
  "140": "",
  "141": "",
  "142": "",
  "143": "",
  "144": "",
  "145": "",
  "146": "",
  "147": "",
  "148": "",
  "149": "",
  "150": "",
  "151": "",
  "152": "",
  "153": "",
  "154": "",
  "155": "",
  "156": "",
  "157": "",
  "158": "",
  "159": "",
  "160": " ",
  "161": "¡",
  "162": "¢",
  "163": "£",
  "164": "¤",
  "165": "¥",
  "166": "¦",
  "167": "§",
  "168": "¨",
  "169": "©",
  "170": "ª",
  "171": "«",
  "172": "¬",
  "173": "­",
  "174": "®",
  "175": "¯",
  "176": "°",
  "177": "±",
  "178": "²",
  "179": "³",
  "180": "´",
  "181": "µ",
  "182": "¶",
  "183": "·",
  "184": "¸",
  "185": "¹",
  "186": "º",
  "187": "»",
  "188": "¼",
  "189": "½",
  "190": "¾",
  "191": "¿",
  "192": "À",
  "193": "Á",
  "194": "Â",
  "195": "Ã",
  "196": "Ä",
  "197": "Å",
  "198": "Æ",
  "199": "Ç",
  "200": "È",
  "201": "É",
  "202": "Ê",
  "203": "Ë",
  "204": "Ì",
  "205": "Í",
  "206": "Î",
  "207": "Ï",
  "208": "Ð",
  "209": "Ñ",
  "210": "Ò",
  "211": "Ó",
  "212": "Ô",
  "213": "Õ",
  "214": "Ö",
  "215": "×",
  "216": "Ø",
  "217": "Ù",
  "218": "Ú",
  "219": "Û",
  "220": "Ü",
  "221": "Ý",
  "222": "Þ",
  "223": "ß",
  "224": "à",
  "225": "á",
  "226": "â",
  "227": "ã",
  "228": "ä",
  "229": "å",
  "230": "æ",
  "231": "ç",
  "232": "è",
  "233": "é",
  "234": "ê",
  "235": "ë",
  "236": "ì",
  "237": "í",
  "238": "î",
  "239": "ï",
  "240": "ð",
  "241": "ñ",
  "242": "ò",
  "243": "ó",
  "244": "ô",
  "245": "õ",
  "246": "ö",
  "247": "÷",
  "248": "ø",
  "249": "ù",
  "250": "ú",
  "251": "û",
  "252": "ü",
  "253": "ý",
  "254": "þ",
  "255": "ÿ",
  "256": "<|endoftext|>",
  "257": " t",
  "258": "he",
  "259": " a",
  "260": " the",
  "261": " w",
  "262": " s",
  "263": "nd",
  "264": "in",
  "265": "ed",
  "266": " b",
  "267": "re",
  "268": " to",
  "269": " o",
  "270": " and",
  "271": " h",
  "272": " f",
  "273": "it",
  "274": "er",
  "275": "ou",
  "276": " c",
  "277": "is",
  "278": "at",
  "279": " p",
  "280": " m",
  "281": " d",
  "282": " T",
  "283": "as",
  "284": " l",
  "285": "an",
  "286": "en",
  "287": "ar",
  "288": "on",
  "289": "om",
  "290": " n",
  "291": "ll",
  "292": "ing",
  "293": "es",
  "294": "or",
  "295": " th",
  "296": "ay",
  "297": " he",
  "298": " of",
  "299": " was",
  "300": "im",
  "301": " g",
  "302": " in",
  "303": " The",
  "304": "id",
  "305": " ha",
  "306": "ot",
  "307": "le",
  "308": " sa",
  "309": "ut",
  "310": " be",
  "311": "ir",
  "312": " S",
  "313": " it",
  "314": " e",
  "315": "us",
  "316": "ic",
  "317": "et",
  "318": "ow",
  "319": "am",
  "320": "ig",
  "321": "ly",
  "322": "ith",
  "323": "ver",
  "324": " with",
  "325": "ld",
  "326": " I",
  "327": " y",
  "328": " H",
  "329": "ri",
  "330": " wh",
  "331": "ve",
  "332": " \"",
  "333": " that",
  "334": "ce",
  "335": " his",
  "336": " u",
  "337": " r",
  "338": " on",
  "339": " pl",
  "340": "ent",
  "341": "pp",
  "342": " st",
  "343": "se",
  "344": " you",
  "345": "oo",
  "346": "al",
  "347": " They",
  "348": " He",
  "349": "her",
  "350": " for",
  "351": " is",
  "352": " we",
  "353": " not",
  "354": " re",
  "355": " said",
  "356": "all",
  "357": "ke",
  "358": " they",
  "359": "ad",
  "360": " day",
  "361": " her",
  "362": "ac",
  "363": " play",
  "364": "ted",
  "365": "On",
  "366": "ked",
  "367": " as",
  "368": "un",
  "369": "ur",
  "370": "very",
  "371": " an",
  "372": " sh",
  "373": " A",
  "374": " had",
  "375": "end",
  "376": "ion",
  "377": "st",
  "378": " She",
  "379": "ould",
  "380": " Tim",
  "381": " B",
  "382": "ht",
  "383": " li",
  "384": " up",
  "385": " so",
  "386": " L",
  "387": " big",
  "388": "il",
  "389": " do",
  "390": " happ",
  "391": "riend",
  "392": " friend",
  "393": "ec",
  "394": "'s",
  "395": " k",
  "396": " but",
  "397": "uc",
  "398": " M",
  "399": "ily",
  "400": "ain",
  "401": " all",
  "402": "ill",
  "403": "ter",
  "404": " at",
  "405": "ore",
  "406": " were",
  "407": "itt",
  "408": " wan",
  "409": " there",
  "410": "ome",
  "411": " ne",
  "412": " fr",
  "413": " very",
  "414": "um",
  "415": "ound",
  "416": "ul",
  "417": " their",
  "418": " se",
  "419": " him",
  "420": "ime",
  "421": "hen",
  "422": "ind",
  "423": " are",
  "424": " she",
  "425": "el",
  "426": " happy",
  "427": "ro",
  "428": " time",
  "429": " them",
  "430": " saw",
  "431": " bo",
  "432": "One",
  "433": "ved",
  "434": "ittle",
  "435": " nam",
  "436": " little",
  "437": " mom",
  "438": " have",
  "439": "ue",
  "440": " by",
  "441": "if",
  "442": "ug",
  "443": "ake",
  "444": " sm",
  "445": " man",
  "446": " from",
  "447": "ag",
  "448": "ide",
  "449": ".\"",
  "450": "est",
  "451": "ry",
  "452": " j",
  "453": " too",
  "454": " me",
  "455": " lo",
  "456": " named",
  "457": "The",
  "458": " upon",
  "459": " friends",
  "460": "ood",
  "461": "oug",
  "462": "ich",
  "463": "ard",
  "464": " It",
  "465": "ight",
  "466": "ess",
  "467": "ird",
  "468": "qu",
  "469": " v",
  "470": " or",
  "471": " Lily",
  "472": " who",
  "473": " wanted",
  "474": " sp",
  "475": " al",
  "476": " go",
  "477": "!\"",
  "478": "th",
  "479": " Tom",
  "480": " which",
  "481": "ame",
  "482": " ex",
  "483": " bird",
  "484": " le",
  "485": " con",
  "486": "ree",
  "487": "ther",
  "488": " went",
  "489": "ra",
  "490": " hel",
  "491": " loo",
  "492": "op",
  "493": " this",
  "494": " did",
  "495": " help",
  "496": "em",
  "497": " can",
  "498": "Once",
  "499": " par",
  "500": "get",
  "501": " W",
  "502": "ack",
  "503": " no",
  "504": "ong",
  "505": " out",
  "506": "ch",
  "507": " kn",
  "508": "hed",
  "509": " ar",
  "510": " C",
  "511": "gether",
  "512": " other",
  "513": "ure",
  "514": " fun",
  "515": "ab",
  "516": "one",
  "517": "os",
  "518": " could",
  "519": "ist",
  "520": " toy",
  "521": " together",
  "522": "are",
  "523": "ous",
  "524": "and",
  "525": "ers",
  "526": " ag",
  "527": " ch",
  "528": "way",
  "529": " would",
  "530": "ust",
  "531": " wor",
  "532": "ell",
  "533": " what",
  "534": " un",
  "535": "ast",
  "536": " cat",
  "537": " when",
  "538": "ings",
  "539": " my",
  "540": " F",
  "541": " ro",
  "542": " will",
  "543": " cl",
  "544": " But",
  "545": " one",
  "546": "ak",
  "547": "ice",
  "548": " bec",
  "549": " dog",
  "550": "ol",
  "551": " ab",
  "552": "my",
  "553": " de",
  "554": " say",
  "555": "ate",
  "556": "own",
  "557": " pre",
  "558": "uch",
  "559": " sc",
  "560": "ant",
  "561": " int",
  "562": "irl",
  "563": "reat",
  "564": " pr",
  "565": "out",
  "566": " tr",
  "567": "ax",
  "568": "our",
  "569": " com",
  "570": "hing",
  "571": " girl",
  "572": " ball",
  "573": " played",
  "574": " found",
  "575": "ia",
  "576": "use",
  "577": "ud",
  "578": " P",
  "579": "?\"",
  "580": "sel",
  "581": "ought",
  "582": "ade",
  "583": "'t",
  "584": " like",
  "585": "ie",
  "586": "ation",
  "587": " good",
  "588": "ap",
  "589": " see",
  "590": " sad",
  "591": " boy",
  "592": " some",
  "593": " your",
  "594": " tree",
  "595": "ace",
  "596": "nt",
  "597": "ive",
  "598": "ven",
  "599": " back",
  "600": " any",
  "601": " then",
  "602": "ks",
  "603": "ty",
  "604": " car",
  "605": " br",
  "606": " star",
  "607": " again",
  "608": " looked",
  "609": " And",
  "610": " loved",
  "611": " pro",
  "612": "ful",
  "613": " more",
  "614": " made",
  "615": "ian",
  "616": " if",
  "617": "ity",
  "618": " make",
  "619": "ose",
  "620": "ile",
  "621": " la",
  "622": " fe",
  "623": " Sue",
  "624": "ies",
  "625": " fl",
  "626": " came",
  "627": "fe",
  "628": "ach",
  "629": " ac",
  "630": "ish",
  "631": " qu",
  "632": " mo",
  "633": " gr",
  "634": "ared",
  "635": " D",
  "636": "omet",
  "637": "side",
  "638": " things",
  "639": " Max",
  "640": " than",
  "641": "ep",
  "642": " every",
  "643": " new",
  "644": "nder",
  "645": "ect",
  "646": "ouse",
  "647": "elt",
  "648": "ine",
  "649": "You",
  "650": " want",
  "651": " wat",
  "652": " am",
  "653": "ves",
  "654": " bl",
  "655": " en",
  "656": " One",
  "657": " E",
  "658": " park",
  "659": "ried",
  "660": " ad",
  "661": " us",
  "662": "iled",
  "663": " somet",
  "664": " su",
  "665": " J",
  "666": " into",
  "667": " asked",
  "668": "fter",
  "669": "ise",
  "670": " felt",
  "671": " liked",
  "672": "ned",
  "673": " put",
  "674": " co",
  "675": " small",
  "676": "ip",
  "677": "wn",
  "678": "ort",
  "679": "oth",
  "680": " away",
  "681": "ough",
  "682": " thought",
  "683": " Sam",
  "684": "ang",
  "685": "hat",
  "686": " find",
  "687": "ass",
  "688": " know",
  "689": " started",
  "690": "ave",
  "691": "ff",
  "692": " Ben",
  "693": "self",
  "694": "ally",
  "695": ",\"",
  "696": "ause",
  "697": " many",
  "698": "ius",
  "699": "ened",
  "700": " im",
  "701": " down",
  "702": "ving",
  "703": " pe",
  "704": "ss",
  "705": " G",
  "706": " about",
  "707": " should",
  "708": " sw",
  "709": " Sp",
  "710": " home",
  "711": " smiled",
  "712": "Î½",
  "713": " something",
  "714": " great",
  "715": " N",
  "716": "oc",
  "717": "here",
  "718": " 1",
  "719": "ob",
  "720": "pt",
  "721": "able",
  "722": " took",
  "723": "ite",
  "724": "ick",
  "725": "pl",
  "726": " how",
  "727": " has",
  "728": " lear",
  "729": " ran",
  "730": "ire",
  "731": " house",
  "732": " po",
  "733": "fore",
  "734": " wal",
  "735": " dis",
  "736": "ook",
  "737": " op",
  "738": " playing",
  "739": "age",
  "740": " app",
  "741": "so",
  "742": " our",
  "743": " sun",
  "744": " says",
  "745": " because",
  "746": " dec",
  "747": " its",
  "748": "ear",
  "749": "oud",
  "750": "other",
  "751": "ance",
  "752": " been",
  "753": " tw",
  "754": " You",
  "755": " laug",
  "756": " both",
  "757": " Spot",
  "758": "od",
  "759": " O",
  "760": "ence",
  "761": "Ï",
  "762": "ny",
  "763": "ew",
  "764": " under",
  "765": "ull",
  "766": " long",
  "767": "ited",
  "768": "ble",
  "769": " being",
  "770": " let",
  "771": " Î",
  "772": " around",
  "773": " now",
  "774": " fo",
  "775": "--",
  "776": " scared",
  "777": "ber",
  "778": " get",
  "779": " also",
  "780": " lived",
  "781": " toys",
  "782": " box",
  "783": " after",
  "784": " sl",
  "785": "pped",
  "786": "ii",
  "787": "á½",
  "788": " care",
  "789": "ink",
  "790": " Th",
  "791": " much",
  "792": "urp",
  "793": " hand",
  "794": " best",
  "795": "ump",
  "796": " str",
  "797": "uck",
  "798": " ho",
  "799": " per",
  "800": " look",
  "801": " R",
  "802": " bet",
  "803": " off",
  "804": "ase",
  "805": " got",
  "806": " show",
  "807": " those",
  "808": "Î±",
  "809": " call",
  "810": " ke",
  "811": " lot",
  "812": " water",
  "813": "ts",
  "814": "irst",
  "815": " even",
  "816": "ath",
  "817": " these",
  "818": " So",
  "819": "av",
  "820": " Mia",
  "821": "ways",
  "822": " red",
  "823": "ucy",
  "824": " exc",
  "825": " over",
  "826": "Tim",
  "827": " tried",
  "828": "Î¿",
  "829": "ge",
  "830": "als",
  "831": " always",
  "832": " pret",
  "833": "ount",
  "834": " each",
  "835": " rem",
  "836": "arm",
  "837": "ions",
  "838": "ft",
  "839": "ans",
  "840": "ided",
  "841": "iv",
  "842": " kind",
  "843": " knew",
  "844": " men",
  "845": " take",
  "846": "ople",
  "847": " just",
  "848": " 2",
  "849": "ord",
  "850": " may",
  "851": "ious",
  "852": "ory",
  "853": " pic",
  "854": " own",
  "855": " only",
  "856": "ub",
  "857": "og",
  "858": " became",
  "859": " '",
  "860": "ck",
  "861": "igh",
  "862": "Lily",
  "863": " imp",
  "864": "les",
  "865": "me",
  "866": " people",
  "867": "ary",
  "868": " des",
  "869": " end",
  "870": " learned",
  "871": " first",
  "872": "ors",
  "873": " cont",
  "874": "ank",
  "875": "dy",
  "876": " sk",
  "877": " old",
  "878": "iz",
  "879": "ather",
  "880": "ild",
  "881": " gave",
  "882": " feel",
  "883": "ower",
  "884": " hug",
  "885": "ment",
  "886": " eat",
  "887": " thr",
  "888": "ning",
  "889": "ct",
  "890": " anim",
  "891": " way",
  "892": " In",
  "893": " come",
  "894": " run",
  "895": "Th",
  "896": " outside",
  "897": "ised",
  "898": " Lucy",
  "899": "per",
  "900": "ix",
  "901": "â",
  "902": "ians",
  "903": " cons",
  "904": " never",
  "905": "hes",
  "906": " room",
  "907": " told",
  "908": "ark",
  "909": " laughed",
  "910": "ial",
  "911": "na",
  "912": " tur",
  "913": " before",
  "914": " cle",
  "915": " decided",
  "916": " acc",
  "917": " need",
  "918": " where",
  "919": "ged",
  "920": "Yes",
  "921": " Bob",
  "922": " wa",
  "923": "ress",
  "924": "ign",
  "925": " two",
  "926": "They",
  "927": "ons",
  "928": " such",
  "929": " His",
  "930": "But",
  "931": " jump",
  "932": "ated",
  "933": " 3",
  "934": " still",
  "935": "ied",
  "936": " while",
  "937": "ds",
  "938": "iny",
  "939": " Mom",
  "940": " bear",
  "941": " dad",
  "942": " surp",
  "943": "ught",
  "944": " place",
  "945": "Îµ",
  "946": " excited",
  "947": "air",
  "948": "á¼",
  "949": " ob",
  "950": " wr",
  "951": "red",
  "952": "ren",
  "953": " better",
  "954": "tain",
  "955": " same",
  "956": " gl",
  "957": " nice",
  "958": " near",
  "959": " We",
  "960": " surpr",
  "961": "ady",
  "962": " part",
  "963": " himself",
  "964": "Tom",
  "965": "Î¹",
  "966": "oy",
  "967": "lew",
  "968": "ens",
  "969": "ex",
  "970": " inside",
  "971": " For",
  "972": "'d",
  "973": "rom",
  "974": " called",
  "975": " comm",
  "976": " sor",
  "977": "udd",
  "978": " pretty",
  "979": "led",
  "980": "ness",
  "981": "ected",
  "982": "aking",
  "983": " having",
  "984": " must",
  "985": "ished",
  "986": "ara",
  "987": " res",
  "988": " cr",
  "989": " give",
  "990": " heard",
  "991": "art",
  "992": "act",
  "993": "Ï",
  "994": " fast",
  "995": " dif",
  "996": " When",
  "997": " comp",
  "998": "anc",
  "999": " fore",
  "1000": "hy",
  "1001": "der",
  "1002": "nna",
  "1003": " ide",
  "1004": " ever",
  "1005": " Then",
  "1006": " love",
  "1007": " animals",
  "1008": " fam",
  "1009": " might",
  "1010": " fish",
  "1011": "ates",
  "1012": " food",
  "1013": " te",
  "1014": "ither",
  "1015": " mag",
  "1016": " high",
  "1017": " most",
  "1018": "ward",
  "1019": "ail",
  "1020": " happened",
  "1021": " sorry",
  "1022": " ple",
  "1023": " gra",
  "1024": "llow",
  "1025": " shall",
  "1026": " list",
  "1027": " hard",
  "1028": " .",
  "1029": " others",
  "1030": " walk",
  "1031": "orn",
  "1032": "iss",
  "1033": " á¼",
  "1034": "ream",
  "1035": " col",
  "1036": " nor",
  "1037": " try",
  "1038": " Her",
  "1039": " bel",
  "1040": " spec",
  "1041": " sn",
  "1042": " ind",
  "1043": "up",
  "1044": " wind",
  "1045": " ground",
  "1046": " beg",
  "1047": " walked",
  "1048": " att",
  "1049": "vent",
  "1050": " nat",
  "1051": " tal",
  "1052": "Ï",
  "1053": " dr",
  "1054": " ear",
  "1055": " sky",
  "1056": " idea",
  "1057": " unt",
  "1058": "gry",
  "1059": " another",
  "1060": " fly",
  "1061": " share",
  "1062": "aut",
  "1063": " pres",
  "1064": " rock",
  "1065": "á¿",
  "1066": " pass",
  "1067": " here",
  "1068": "ient",
  "1069": " follow",
  "1070": " rest",
  "1071": " hur",
  "1072": " gi",
  "1073": " K",
  "1074": " bu",
  "1075": " right",
  "1076": " 4",
  "1077": " em",
  "1078": "atter",
  "1079": " king",
  "1080": " didn",
  "1081": "ever",
  "1082": " mar",
  "1083": " name",
  "1084": " through",
  "1085": " bad",
  "1086": "be",
  "1087": " without",
  "1088": " Amy",
  "1089": "ting",
  "1090": " careful",
  "1091": " che",
  "1092": "udden",
  "1093": " pers",
  "1094": "ib",
  "1095": " bug",
  "1096": "ered",
  "1097": "ool",
  "1098": " don",
  "1099": " use",
  "1100": "Ï",
  "1101": " safe",
  "1102": " rep",
  "1103": "ched",
  "1104": " gre",
  "1105": " tre",
  "1106": "que",
  "1107": " special",
  "1108": " This",
  "1109": " flew",
  "1110": "more",
  "1111": " strong",
  "1112": "aught",
  "1113": " tri",
  "1114": " ey",
  "1115": "ph",
  "1116": " met",
  "1117": "bed",
  "1118": "uri",
  "1119": " well",
  "1120": " spe",
  "1121": " sou",
  "1122": "ult",
  "1123": " At",
  "1124": " beaut",
  "1125": " From",
  "1126": " life",
  "1127": "Mom",
  "1128": " lots",
  "1129": " war",
  "1130": "selves",
  "1131": "Thank",
  "1132": "xt",
  "1133": " work",
  "1134": " think",
  "1135": "pected",
  "1136": " anymore",
  "1137": " thing",
  "1138": " gen",
  "1139": " form",
  "1140": " does",
  "1141": " fell",
  "1142": " far",
  "1143": " clean",
  "1144": " town",
  "1145": "oss",
  "1146": " del",
  "1147": "imes",
  "1148": " against",
  "1149": "ired",
  "1150": "thing",
  "1151": " next",
  "1152": "less",
  "1153": "ane",
  "1154": " sub",
  "1155": "As",
  "1156": " thou",
  "1157": "orm",
  "1158": "uddenly",
  "1159": " dist",
  "1160": " keep",
  "1161": "ears",
  "1162": " loud",
  "1163": " proud",
  "1164": "ures",
  "1165": "Let",
  "1166": "ret",
  "1167": "Ã¦",
  "1168": "Ï",
  "1169": "ible",
  "1170": " bro",
  "1171": " head",
  "1172": "ition",
  "1173": " family",
  "1174": " hands",
  "1175": " shiny",
  "1176": " lea",
  "1177": "amp",
  "1178": " bra",
  "1179": "akes",
  "1180": " surprised",
  "1181": " Ï",
  "1182": " Every",
  "1183": "not",
  "1184": "ict",
  "1185": " door",
  "1186": " yet",
  "1187": " opened",
  "1188": " gard",
  "1189": " until",
  "1190": " Now",
  "1191": " soon",
  "1192": " clim",
  "1193": " cake",
  "1194": " ent",
  "1195": "tle",
  "1196": " unex",
  "1197": " garden",
  "1198": " Anna",
  "1199": " mean",
  "1200": " unexpected",
  "1201": " diffe",
  "1202": " exp",
  "1203": " As",
  "1204": "ere",
  "1205": " inc",
  "1206": " set",
  "1207": " gu",
  "1208": " count",
  "1209": "ations",
  "1210": "uff",
  "1211": "ee",
  "1212": " picked",
  "1213": "by",
  "1214": " arm",
  "1215": " pain",
  "1216": "'m",
  "1217": "oin",
  "1218": " used",
  "1219": " stay",
  "1220": " inf",
  "1221": " city",
  "1222": " ser",
  "1223": " thy",
  "1224": " mor",
  "1225": " ph",
  "1226": "raw",
  "1227": "ince",
  "1228": "ject",
  "1229": " supp",
  "1230": " sec",
  "1231": " blue",
  "1232": "bit",
  "1233": "iful",
  "1234": "ange",
  "1235": " magic",
  "1236": " power",
  "1237": " thanked",
  "1238": "ids",
  "1239": "oun",
  "1240": " open",
  "1241": "It",
  "1242": " beh",
  "1243": "rent",
  "1244": " hurt",
  "1245": " hear",
  "1246": " lost",
  "1247": " Let",
  "1248": " wo",
  "1249": " bre",
  "1250": " sat",
  "1251": " V",
  "1252": " whom",
  "1253": " rel",
  "1254": " hugged",
  "1255": " ass",
  "1256": " sing",
  "1257": " Sara",
  "1258": " disc",
  "1259": " num",
  "1260": " sto",
  "1261": " story",
  "1262": " tell",
  "1263": " eyes",
  "1264": " gener",
  "1265": " though",
  "1266": "No",
  "1267": "ummy",
  "1268": " beautiful",
  "1269": " hop",
  "1270": "irt",
  "1271": " jumped",
  "1272": " cour",
  "1273": " fire",
  "1274": " ret",
  "1275": " conf",
  "1276": " light",
  "1277": " squ",
  "1278": "ertain",
  "1279": " land",
  "1280": "az",
  "1281": "ides",
  "1282": " act",
  "1283": " forest",
  "1284": " rec",
  "1285": " read",
  "1286": "ost",
  "1287": " Ch",
  "1288": "ded",
  "1289": " child",
  "1290": "uth",
  "1291": " world",
  "1292": " talk",
  "1293": " mind",
  "1294": "ey",
  "1295": " done",
  "1296": " showed",
  "1297": " expl",
  "1298": " themselves",
  "1299": " mon",
  "1300": " flow",
  "1301": " God",
  "1302": "kay",
  "1303": "uit",
  "1304": "Î»",
  "1305": "rel",
  "1306": " night",
  "1307": " listen",
  "1308": " clos",
  "1309": " body",
  "1310": " ii",
  "1311": " three",
  "1312": " rain",
  "1313": "we",
  "1314": " boat",
  "1315": " sea",
  "1316": "ason",
  "1317": "ner",
  "1318": "What",
  "1319": " fall",
  "1320": " words",
  "1321": " frog",
  "1322": "itty",
  "1323": " left",
  "1324": " fav",
  "1325": " poss",
  "1326": "aster",
  "1327": "When",
  "1328": " ri",
  "1329": " perf",
  "1330": "inc",
  "1331": "ng",
  "1332": " bed",
  "1333": " less",
  "1334": " seem",
  "1335": " book",
  "1336": " x",
  "1337": " son",
  "1338": "ove",
  "1339": "cri",
  "1340": " pict",
  "1341": " full",
  "1342": " That",
  "1343": " kept",
  "1344": "ield",
  "1345": " There",
  "1346": " inst",
  "1347": "cc",
  "1348": " angry",
  "1349": " turn",
  "1350": " soft",
  "1351": " happily",
  "1352": " going",
  "1353": " cry",
  "1354": "iver",
  "1355": "ae",
  "1356": " fin",
  "1357": " bus",
  "1358": "ute",
  "1359": " present",
  "1360": "ier",
  "1361": "ond",
  "1362": "rew",
  "1363": " helped",
  "1364": " hon",
  "1365": " different",
  "1366": " real",
  "1367": "sh",
  "1368": " brave",
  "1369": "urn",
  "1370": " warm",
  "1371": " order",
  "1372": " kids",
  "1373": " whole",
  "1374": " whe",
  "1375": "reed",
  "1376": " watch",
  "1377": " soul",
  "1378": " hat",
  "1379": "lic",
  "1380": "leep",
  "1381": "ale",
  "1382": " nature",
  "1383": "ins",
  "1384": "wards",
  "1385": "unny",
  "1386": " law",
  "1387": "oice",
  "1388": " el",
  "1389": " sound",
  "1390": "int",
  "1391": " rece",
  "1392": " aff",
  "1393": " nothing",
  "1394": "ater",
  "1395": " To",
  "1396": " sent",
  "1397": " reg",
  "1398": " stopped",
  "1399": " everyone",
  "1400": " brought",
  "1401": " bar",
  "1402": "Then",
  "1403": "lf",
  "1404": " making",
  "1405": " death",
  "1406": " game",
  "1407": " face",
  "1408": "mb",
  "1409": "iet",
  "1410": "wer",
  "1411": " Wh",
  "1412": " nec",
  "1413": " prom",
  "1414": " es",
  "1415": "oman",
  "1416": " et",
  "1417": "ken",
  "1418": " hold",
  "1419": " father",
  "1420": " What",
  "1421": "oney",
  "1422": " swe",
  "1423": "Can",
  "1424": "ma",
  "1425": " char",
  "1426": "ember",
  "1427": "That",
  "1428": " 5",
  "1429": "io",
  "1430": " import",
  "1431": "asure",
  "1432": "joy",
  "1433": " birds",
  "1434": "aken",
  "1435": " fix",
  "1436": "Î¼",
  "1437": " hun",
  "1438": " green",
  "1439": "ger",
  "1440": "ular",
  "1441": " z",
  "1442": "oll",
  "1443": " began",
  "1444": "uffy",
  "1445": " noise",
  "1446": "emy",
  "1447": "und",
  "1448": "oon",
  "1449": " nod",
  "1450": " yummy",
  "1451": "aced",
  "1452": " sen",
  "1453": " flowers",
  "1454": " ate",
  "1455": " Sally",
  "1456": " ref",
  "1457": "ider",
  "1458": " mouse",
  "1459": " Fl",
  "1460": " div",
  "1461": "eed",
  "1462": " enjoy",
  "1463": " race",
  "1464": " wall",
  "1465": " stick",
  "1466": " among",
  "1467": "ike",
  "1468": "ants",
  "1469": " fight",
  "1470": "ster",
  "1471": " Kitty",
  "1472": " ter",
  "1473": "row",
  "1474": " couldn",
  "1475": "ock",
  "1476": " doll",
  "1477": "uct",
  "1478": " wait",
  "1479": " Ã",
  "1480": "ived",
  "1481": " party",
  "1482": "anger",
  "1483": " remember",
  "1484": " ask",
  "1485": " god",
  "1486": " Can",
  "1487": "We",
  "1488": " ev",
  "1489": " underst",
  "1490": " store",
  "1491": " pus",
  "1492": " mess",
  "1493": " thus",
  "1494": " earth",
  "1495": "He",
  "1496": " tem",
  "1497": "illy",
  "1498": " sleep",
  "1499": " learn",
  "1500": "man",
  "1501": " ele",
  "1502": "abbit",
  "1503": "ude",
  "1504": "ents",
  "1505": " matter",
  "1506": " dark",
  "1507": " seen",
  "1508": "yr",
  "1509": "aring",
  "1510": " cold",
  "1511": " truck",
  "1512": " -",
  "1513": "to",
  "1514": "ities",
  "1515": " hole",
  "1516": " either",
  "1517": " draw",
  "1518": " move",
  "1519": "ash",
  "1520": " looking",
  "1521": "Hi",
  "1522": " slide",
  "1523": " rabbit",
  "1524": " smile",
  "1525": "urious",
  "1526": "day",
  "1527": " reason",
  "1528": " adv",
  "1529": " brother",
  "1530": " last",
  "1531": "irrel",
  "1532": " est",
  "1533": " why",
  "1534": " ut",
  "1535": " therefore",
  "1536": " ans",
  "1537": " catch",
  "1538": "ps",
  "1539": " suff",
  "1540": "oh",
  "1541": " adm",
  "1542": " cook",
  "1543": " sit",
  "1544": "ium",
  "1545": "ual",
  "1546": " voice",
  "1547": "â",
  "1548": "At",
  "1549": "â",
  "1550": "aces",
  "1551": " side",
  "1552": " wood",
  "1553": " thee",
  "1554": " squirrel",
  "1555": " nodded",
  "1556": "In",
  "1557": " alone",
  "1558": "ached",
  "1559": " prop",
  "1560": " yell",
  "1561": " Do",
  "1562": "the",
  "1563": " sweet",
  "1564": " Ar",
  "1565": " leg",
  "1566": " important",
  "1567": "Look",
  "1568": " cannot",
  "1569": " pri",
  "1570": " grow",
  "1571": " bright",
  "1572": " pull",
  "1573": " ext",
  "1574": " dep",
  "1575": "ont",
  "1576": " hill",
  "1577": " treat",
  "1578": " behind",
  "1579": " dri",
  "1580": " country",
  "1581": " All",
  "1582": " dress",
  "1583": "ained",
  "1584": "irc",
  "1585": " moral",
  "1586": " belie",
  "1587": "ined",
  "1588": " fear",
  "1589": " funny",
  "1590": "cept",
  "1591": " fruit",
  "1592": " stand",
  "1593": " years",
  "1594": " *",
  "1595": " flo",
  "1596": " sand",
  "1597": " tired",
  "1598": " purp",
  "1599": " turned",
  "1600": " true",
  "1601": " wise",
  "1602": " held",
  "1603": " anything",
  "1604": " certain",
  "1605": "fic",
  "1606": " Fluffy",
  "1607": "Ben",
  "1608": " trees",
  "1609": "gy",
  "1610": " leaves",
  "1611": "itc",
  "1612": " gods",
  "1613": "ording",
  "1614": "ple",
  "1615": " fair",
  "1616": " flower",
  "1617": " taken",
  "1618": " close",
  "1619": "ohn",
  "1620": "ized",
  "1621": " hum",
  "1622": " bit",
  "1623": " If",
  "1624": " bow",
  "1625": " top",
  "1626": " ben",
  "1627": " ill",
  "1628": " hid",
  "1629": " ready",
  "1630": " bunny",
  "1631": "ention",
  "1632": " art",
  "1633": " river",
  "1634": "pect",
  "1635": " air",
  "1636": " favor",
  "1637": " repl",
  "1638": "aven",
  "1639": " pond",
  "1640": " itself",
  "1641": " fur",
  "1642": "ical",
  "1643": "ued",
  "1644": " join",
  "1645": " else",
  "1646": "illed",
  "1647": "where",
  "1648": "enc",
  "1649": " contin",
  "1650": " hor",
  "1651": "osed",
  "1652": " please",
  "1653": " cla",
  "1654": " sunny",
  "1655": " ca",
  "1656": " cap",
  "1657": " free",
  "1658": " inv",
  "1659": " ant",
  "1660": " suc",
  "1661": " conc",
  "1662": "itchen",
  "1663": " kitchen",
  "1664": " song",
  "1665": " ve",
  "1666": " ste",
  "1667": " children",
  "1668": "zy",
  "1669": "thy",
  "1670": "Hell",
  "1671": "rates",
  "1672": " 6",
  "1673": " letter",
  "1674": " sure",
  "1675": " advent",
  "1676": " climb",
  "1677": "ipp",
  "1678": " wonder",
  "1679": " win",
  "1680": "ato",
  "1681": " agreed",
  "1682": "Ï",
  "1683": " curious",
  "1684": " princ",
  "1685": " forg",
  "1686": " days",
  "1687": " table",
  "1688": " number",
  "1689": " touch",
  "1690": " bring",
  "1691": " mommy",
  "1692": " shared",
  "1693": " young",
  "1694": " round",
  "1695": " occ",
  "1696": " Ï",
  "1697": "ains",
  "1698": "Hello",
  "1699": " Îº",
  "1700": " dro",
  "1701": " gone",
  "1702": " hot",
  "1703": " bat",
  "1704": " given",
  "1705": " bag",
  "1706": " vi",
  "1707": " tall",
  "1708": " worked",
  "1709": "ert",
  "1710": " plan",
  "1711": " cut",
  "1712": " cond",
  "1713": " stop",
  "1714": "ceed",
  "1715": " â",
  "1716": "ef",
  "1717": " coming",
  "1718": " ice",
  "1719": " def",
  "1720": "oot",
  "1721": "over",
  "1722": "arent",
  "1723": " speak",
  "1724": "ote",
  "1725": " mother",
  "1726": " inter",
  "1727": " mus",
  "1728": " state",
  "1729": "After",
  "1730": "Î¯",
  "1731": "ten",
  "1732": " cast",
  "1733": " Jack",
  "1734": " Ph",
  "1735": "oe",
  "1736": " feeling",
  "1737": " farm",
  "1738": " okay",
  "1739": " doing",
  "1740": "ublic",
  "1741": " vis",
  "1742": " person",
  "1743": "ister",
  "1744": " sign",
  "1745": " spo",
  "1746": " ins",
  "1747": " once",
  "1748": " pap",
  "1749": " Fin",
  "1750": " grass",
  "1751": " creat",
  "1752": " hair",
  "1753": "eth",
  "1754": " opp",
  "1755": "Why",
  "1756": " favorite",
  "1757": " Ã¾",
  "1758": "ween",
  "1759": "ames",
  "1760": "eter",
  "1761": " fa",
  "1762": " since",
  "1763": "outh",
  "1764": " phil",
  "1765": " makes",
  "1766": " U",
  "1767": " indeed",
  "1768": " sim",
  "1769": "This",
  "1770": "Don",
  "1771": " sometimes",
  "1772": "And",
  "1773": "te",
  "1774": "ased",
  "1775": " surprise",
  "1776": " watched",
  "1777": "Wow",
  "1778": " yard",
  "1779": "used",
  "1780": " enemy",
  "1781": " circ",
  "1782": "Îº",
  "1783": " equ",
  "1784": "ling",
  "1785": "oub",
  "1786": " broken",
  "1787": " pat",
  "1788": " roll",
  "1789": " cried",
  "1790": " command",
  "1791": "br",
  "1792": " tail",
  "1793": "iles",
  "1794": " moment",
  "1795": "HE",
  "1796": " glad",
  "1797": " ship",
  "1798": " between",
  "1799": " however",
  "1800": "ooks",
  "1801": "omp",
  "1802": " lady",
  "1803": " 7",
  "1804": " ow",
  "1805": "kes",
  "1806": " whose",
  "1807": " cor",
  "1808": "Ï",
  "1809": " walking",
  "1810": " replied",
  "1811": "ines",
  "1812": " quick",
  "1813": " sold",
  "1814": "ape",
  "1815": " understand",
  "1816": " mouth",
  "1817": " prov",
  "1818": " arms",
  "1819": " word",
  "1820": " color",
  "1821": " laugh",
  "1822": " After",
  "1823": " jud",
  "1824": " gif",
  "1825": "ended",
  "1826": "iness",
  "1827": "oom",
  "1828": " able",
  "1829": " lion",
  "1830": "une",
  "1831": "ows",
  "1832": " floor",
  "1833": "men",
  "1834": " friendly",
  "1835": " picture",
  "1836": " pol",
  "1837": " needed",
  "1838": " wish",
  "1839": "ries",
  "1840": "isy",
  "1841": " worry",
  "1842": " whether",
  "1843": " reached",
  "1844": "aw",
  "1845": "irty",
  "1846": "aybe",
  "1847": "irit",
  "1848": " build",
  "1849": " heav",
  "1850": " money",
  "1851": " wrong",
  "1852": " wished",
  "1853": " running",
  "1854": " spr",
  "1855": " consul",
  "1856": "ila",
  "1857": " colors",
  "1858": " deep",
  "1859": "ently",
  "1860": " dest",
  "1861": "dom",
  "1862": " pot",
  "1863": " eas",
  "1864": " lar",
  "1865": " grab",
  "1866": " butter",
  "1867": " virt",
  "1868": "old",
  "1869": " fort",
  "1870": "ator",
  "1871": " heart",
  "1872": " anc",
  "1873": " closer",
  "1874": " mis",
  "1875": "Max",
  "1876": "cess",
  "1877": " case",
  "1878": " perfect",
  "1879": " Dad",
  "1880": "gth",
  "1881": " course",
  "1882": "ises",
  "1883": " danc",
  "1884": "ross",
  "1885": " eff",
  "1886": " books",
  "1887": "So",
  "1888": "ocks",
  "1889": "app",
  "1890": "á½¶",
  "1891": "Î·",
  "1892": " army",
  "1893": " yellow",
  "1894": " add",
  "1895": "ief",
  "1896": " cars",
  "1897": "res",
  "1898": " 8",
  "1899": " Mr",
  "1900": " opin",
  "1901": " Pl",
  "1902": "ully",
  "1903": "read",
  "1904": "ope",
  "1905": " horse",
  "1906": " dream",
  "1907": "ife",
  "1908": " hungry",
  "1909": " proper",
  "1910": " leave",
  "1911": " danger",
  "1912": " St",
  "1913": " according",
  "1914": " wet",
  "1915": " sees",
  "1916": " enough",
  "1917": " dem",
  "1918": " paper",
  "1919": " rather",
  "1920": "aby",
  "1921": " On",
  "1922": " train",
  "1923": "ages",
  "1924": " How",
  "1925": "ias",
  "1926": " quest",
  "1927": "ets",
  "1928": " Of",
  "1929": " pra",
  "1930": " obs",
  "1931": " smell",
  "1932": " With",
  "1933": " account",
  "1934": " cloud",
  "1935": "â",
  "1936": "osop",
  "1937": " tast",
  "1938": " truth",
  "1939": " mix",
  "1940": " few",
  "1941": " dance",
  "1942": " Suddenly",
  "1943": " thin",
  "1944": " slow",
  "1945": "ead",
  "1946": " live",
  "1947": " ÎºÎ±",
  "1948": " prod",
  "1949": " pick",
  "1950": " hig",
  "1951": "Î­",
  "1952": " peace",
  "1953": "Sam",
  "1954": "arch",
  "1955": " means",
  "1956": "Sue",
  "1957": " year",
  "1958": " wis",
  "1959": "ander",
  "1960": "lex",
  "1961": "urs",
  "1962": "Anna",
  "1963": "iced",
  "1964": " swim",
  "1965": "icy",
  "1966": "vers",
  "1967": " á¼",
  "1968": " lay",
  "1969": " white",
  "1970": " possess",
  "1971": " Athen",
  "1972": " Y",
  "1973": " amaz",
  "1974": " appear",
  "1975": "ER",
  "1976": " respect",
  "1977": " swing",
  "1978": "fully",
  "1979": " X",
  "1980": " listened",
  "1981": " followed",
  "1982": " field",
  "1983": "Wh",
  "1984": "ours",
  "1985": " consider",
  "1986": " arri",
  "1987": " ra",
  "1988": " reach",
  "1989": " hide",
  "1990": " common",
  "1991": " lead",
  "1992": " everything",
  "1993": "bye",
  "1994": " Gree",
  "1995": " serv",
  "1996": " cup",
  "1997": " four",
  "1998": "bo",
  "1999": " sur",
  "2000": " towards",
  "2001": "rist",
  "2002": " manner",
  "2003": " gold",
  "2004": "ured",
  "2005": " climbed",
  "2006": "She",
  "2007": " tra",
  "2008": " parent",
  "2009": " coll",
  "2010": " spot",
  "2011": " philosop",
  "2012": " snow",
  "2013": "unt",
  "2014": " evil",
  "2015": " looks",
  "2016": " Z",
  "2017": "lc",
  "2018": " neither",
  "2019": " Bobo",
  "2020": "ric",
  "2021": " cool",
  "2022": " er",
  "2023": "its",
  "2024": "els",
  "2025": "ask",
  "2026": " trans",
  "2027": "med",
  "2028": " ought",
  "2029": " heaven",
  "2030": "ior",
  "2031": " forth",
  "2032": "itten",
  "2033": " din",
  "2034": " buy",
  "2035": "ately",
  "2036": " grand",
  "2037": " bur",
  "2038": " belong",
  "2039": " wag",
  "2040": " An",
  "2041": " heavy",
  "2042": " spirit",
  "2043": "olly",
  "2044": " --",
  "2045": " black",
  "2046": " subject",
  "2047": " really",
  "2048": "ugg",
  "2049": "iam",
  "2050": " ce",
  "2051": "str",
  "2052": " ru",
  "2053": "Suddenly",
  "2054": " duck",
  "2055": "Sara",
  "2056": " Jane",
  "2057": " drink",
  "2058": "ready",
  "2059": " public",
  "2060": "Î¿Î½",
  "2061": "ives",
  "2062": "ony",
  "2063": " necess",
  "2064": " blocks",
  "2065": " dead",
  "2066": " helping",
  "2067": " val",
  "2068": " clot",
  "2069": " sum",
  "2070": "itting",
  "2071": "cks",
  "2072": " miss",
  "2073": "ating",
  "2074": " Timmy",
  "2075": " ap",
  "2076": " pu",
  "2077": " living",
  "2078": "land",
  "2079": " pushed",
  "2080": " won",
  "2081": " 9",
  "2082": " answer",
  "2083": " sail",
  "2084": "outed",
  "2085": " disp",
  "2086": " ancient",
  "2087": " butterf",
  "2088": "mn",
  "2089": " already",
  "2090": " trying",
  "2091": " Î´",
  "2092": "rence",
  "2093": " games",
  "2094": " past",
  "2095": " cream",
  "2096": "roy",
  "2097": "la",
  "2098": " break",
  "2099": " cause",
  "2100": " baby",
  "2101": " quickly",
  "2102": "ments",
  "2103": " á½",
  "2104": " meet",
  "2105": " vict",
  "2106": "fort",
  "2107": "ilt",
  "2108": " become",
  "2109": " cra",
  "2110": " woods",
  "2111": "'re",
  "2112": " goodbye",
  "2113": "Mia",
  "2114": "ience",
  "2115": "ues",
  "2116": " pie",
  "2117": " general",
  "2118": "ced",
  "2119": "Î¸",
  "2120": " fact",
  "2121": "ident",
  "2122": " believe",
  "2123": "ze",
  "2124": " human",
  "2125": " mention",
  "2126": " explore",
  "2127": " mat",
  "2128": " stuck",
  "2129": "ually",
  "2130": " sil",
  "2131": " apple",
  "2132": "II",
  "2133": "Qu",
  "2134": " var",
  "2135": "erv",
  "2136": " mil",
  "2137": " broke",
  "2138": "erc",
  "2139": "hap",
  "2140": " Everyone",
  "2141": " requ",
  "2142": "ction",
  "2143": "uce",
  "2144": " pray",
  "2145": "See",
  "2146": "aughter",
  "2147": " thank",
  "2148": " pun",
  "2149": " sch",
  "2150": " nest",
  "2151": " quiet",
  "2152": " music",
  "2153": "Ï",
  "2154": " object",
  "2155": " cand",
  "2156": "owed",
  "2157": " arg",
  "2158": "icked",
  "2159": "ison",
  "2160": " intell",
  "2161": " mod",
  "2162": " above",
  "2163": " secret",
  "2164": " carry",
  "2165": " cit",
  "2166": "Oh",
  "2167": "Her",
  "2168": " threw",
  "2169": "ably",
  "2170": " within",
  "2171": " mine",
  "2172": "irth",
  "2173": "mon",
  "2174": " known",
  "2175": " pen",
  "2176": "room",
  "2177": " turns",
  "2178": " spl",
  "2179": "most",
  "2180": " dirty",
  "2181": " parts",
  "2182": "vel",
  "2183": " sal",
  "2184": "iter",
  "2185": "uddy",
  "2186": " mad",
  "2187": " blood",
  "2188": " camp",
  "2189": " return",
  "2190": " clothes",
  "2191": " scary",
  "2192": " cal",
  "2193": " everywhere",
  "2194": " av",
  "2195": "Î¬",
  "2196": "Î³",
  "2197": " eg",
  "2198": " joy",
  "2199": " foot",
  "2200": "aisy",
  "2201": " sister",
  "2202": " sort",
  "2203": "rib",
  "2204": " pulled",
  "2205": "ms",
  "2206": " shouted",
  "2207": " received",
  "2208": " poin",
  "2209": " auth",
  "2210": "undred",
  "2211": "ize",
  "2212": " remembered",
  "2213": "uring",
  "2214": " heal",
  "2215": "hip",
  "2216": " opinion",
  "2217": " chair",
  "2218": "rot",
  "2219": " tiny",
  "2220": " coun",
  "2221": " 10",
  "2222": " times",
  "2223": " stayed",
  "2224": "ledge",
  "2225": "key",
  "2226": "pot",
  "2227": " bot",
  "2228": " butterfly",
  "2229": " large",
  "2230": " wear",
  "2231": " hundred",
  "2232": " partic",
  "2233": " desire",
  "2234": " mount",
  "2235": " plant",
  "2236": " forgot",
  "2237": " princip",
  "2238": " seek",
  "2239": " hope",
  "2240": " á¼",
  "2241": "lease",
  "2242": "iew",
  "2243": " diffic",
  "2244": "ying",
  "2245": " min",
  "2246": " pretend",
  "2247": " success",
  "2248": " xx",
  "2249": " fit",
  "2250": "Î´",
  "2251": " doct",
  "2252": " enjoyed",
  "2253": " owl",
  "2254": " med",
  "2255": " exist",
  "2256": " comes",
  "2257": "ement",
  "2258": " ign",
  "2259": "ero",
  "2260": "ones",
  "2261": " window",
  "2262": " appro",
  "2263": " often",
  "2264": " gover",
  "2265": " pract",
  "2266": " ed",
  "2267": " dry",
  "2268": " bes",
  "2269": " battle",
  "2270": " lesson",
  "2271": "igin",
  "2272": " filled",
  "2273": " eng",
  "2274": " clear",
  "2275": " waited",
  "2276": " teac",
  "2277": " clapped",
  "2278": "ousand",
  "2279": "ices",
  "2280": " greater",
  "2281": "uced",
  "2282": "osition",
  "2283": "omans",
  "2284": " pink",
  "2285": "par",
  "2286": " job",
  "2287": "ppy",
  "2288": " taking",
  "2289": "aged",
  "2290": " mot",
  "2291": " stone",
  "2292": " thousand",
  "2293": "ury",
  "2294": " esc",
  "2295": "oes",
  "2296": " Or",
  "2297": " bigger",
  "2298": " stat",
  "2299": " herself",
  "2300": "iers",
  "2301": " regard",
  "2302": "ocrates",
  "2303": " Ca",
  "2304": "ung",
  "2305": " gent",
  "2306": "itude",
  "2307": " unc",
  "2308": " colorful",
  "2309": "ining",
  "2310": " noticed",
  "2311": " birth",
  "2312": " ÎºÎ±á½¶",
  "2313": " contr",
  "2314": "ites",
  "2315": " waved",
  "2316": " wild",
  "2317": " continued",
  "2318": "ucky",
  "2319": "Okay",
  "2320": " tower",
  "2321": " ,",
  "2322": " former",
  "2323": " iv",
  "2324": " second",
  "2325": " longer",
  "2326": "omen",
  "2327": " pictures",
  "2328": " origin",
  "2329": "ces",
  "2330": " guard",
  "2331": "bar",
  "2332": " grabbed",
  "2333": "ton",
  "2334": " Em",
  "2335": " ord",
  "2336": " likes",
  "2337": " carried",
  "2338": " intere",
  "2339": " blew",
  "2340": " pop",
  "2341": " iii",
  "2342": " parents",
  "2343": "ush",
  "2344": " super",
  "2345": " corn",
  "2346": "acter",
  "2347": " sol",
  "2348": " animal",
  "2349": " Mar",
  "2350": "ics",
  "2351": " Î¼",
  "2352": " mist",
  "2353": " Ant",
  "2354": "US",
  "2355": " gri",
  "2356": " delic",
  "2357": "anch",
  "2358": "ances",
  "2359": " mid",
  "2360": " paint",
  "2361": " along",
  "2362": "rod",
  "2363": " woman",
  "2364": " road",
  "2365": "eces",
  "2366": " point",
  "2367": "ech",
  "2368": " adventure",
  "2369": " virtue",
  "2370": " view",
  "2371": "á½¸",
  "2372": "ges",
  "2373": " pi",
  "2374": " har",
  "2375": "ery",
  "2376": " Mommy",
  "2377": "ne",
  "2378": "ES",
  "2379": " moder",
  "2380": "itted",
  "2381": " seed",
  "2382": "ror",
  "2383": "aid",
  "2384": " character",
  "2385": " happen",
  "2386": "ories",
  "2387": "oof",
  "2388": " bor",
  "2389": " tight",
  "2390": "den",
  "2391": " natur",
  "2392": "rat",
  "2393": " drag",
  "2394": " John",
  "2395": " myself",
  "2396": "aul",
  "2397": " trib",
  "2398": " hast",
  "2399": " wife",
  "2400": "From",
  "2401": " ride",
  "2402": " My",
  "2403": " Be",
  "2404": "eared",
  "2405": " age",
  "2406": " question",
  "2407": " master",
  "2408": " cover",
  "2409": " change",
  "2410": " prot",
  "2411": "ution",
  "2412": " hopped",
  "2413": " moved",
  "2414": " promised",
  "2415": " ban",
  "2416": " pieces",
  "2417": " visit",
  "2418": "ourn",
  "2419": " thinks",
  "2420": "Do",
  "2421": " wants",
  "2422": "\".",
  "2423": " ju",
  "2424": " rocks",
  "2425": " stri",
  "2426": " higher",
  "2427": " self",
  "2428": " enc",
  "2429": " vill",
  "2430": " interest",
  "2431": " saying",
  "2432": " doub",
  "2433": " non",
  "2434": " yes",
  "2435": " ye",
  "2436": "kn",
  "2437": " gift",
  "2438": " places",
  "2439": " force",
  "2440": " line",
  "2441": " strange",
  "2442": " lab",
  "2443": "icks",
  "2444": " smo",
  "2445": " leaf",
  "2446": "any",
  "2447": " Al",
  "2448": "iii",
  "2449": " gives",
  "2450": " key",
  "2451": " stood",
  "2452": "note",
  "2453": " soldiers",
  "2454": " af",
  "2455": "het",
  "2456": " author",
  "2457": " send",
  "2458": " swam",
  "2459": " sy",
  "2460": " knowledge",
  "2461": " flying",
  "2462": "Lucy",
  "2463": " school",
  "2464": "Ï",
  "2465": "oph",
  "2466": " finished",
  "2467": " imag",
  "2468": " emp",
  "2469": " pay",
  "2470": " gentle",
  "2471": " stren",
  "2472": "Î¿á¿",
  "2473": " begin",
  "2474": " govern",
  "2475": " sacri",
  "2476": " arrived",
  "2477": " =",
  "2478": "á¿¶",
  "2479": " monster",
  "2480": "ron",
  "2481": "Ï",
  "2482": " Buddy",
  "2483": " persons",
  "2484": "ection",
  "2485": " bowl",
  "2486": " These",
  "2487": "rit",
  "2488": " fre",
  "2489": " daughter",
  "2490": "Bob",
  "2491": "ootnote",
  "2492": " rob",
  "2493": " stud",
  "2494": "zz",
  "2495": " fle",
  "2496": " feet",
  "2497": " univer",
  "2498": "'ll",
  "2499": " bod",
  "2500": " abs",
  "2501": " obser",
  "2502": "airs",
  "2503": "amed",
  "2504": " purple",
  "2505": " throw",
  "2506": " castle",
  "2507": "ouble",
  "2508": " pet",
  "2509": " branch",
  "2510": " 11",
  "2511": " wine",
  "2512": " cur",
  "2513": " Daisy",
  "2514": " amb",
  "2515": " dire",
  "2516": "fer",
  "2517": " express",
  "2518": " Is",
  "2519": " Qu",
  "2520": " temple",
  "2521": "á½²",
  "2522": "Spot",
  "2523": " dinner",
  "2524": " carefully",
  "2525": "ext",
  "2526": "His",
  "2527": " senate",
  "2528": "semb",
  "2529": " welc",
  "2530": " morning",
  "2531": "esar",
  "2532": " citiz",
  "2533": "eal",
  "2534": " tor",
  "2535": " Why",
  "2536": " ver",
  "2537": "Now",
  "2538": " seems",
  "2539": " talked",
  "2540": " intellig",
  "2541": " nap",
  "2542": " vol",
  "2543": " short",
  "2544": " wings",
  "2545": "iting",
  "2546": " caught",
  "2547": " chang",
  "2548": " sever",
  "2549": " pleasure",
  "2550": " danced",
  "2551": " note",
  "2552": " viol",
  "2553": "asion",
  "2554": " particular",
  "2555": " sense",
  "2556": "Footnote",
  "2557": " rich",
  "2558": " sword",
  "2559": " concer",
  "2560": "rand",
  "2561": " suffer",
  "2562": "ars",
  "2563": "ades",
  "2564": " born",
  "2565": " proceed",
  "2566": " prob",
  "2567": " piece",
  "2568": "eg",
  "2569": "gypt",
  "2570": " Roman",
  "2571": "angu",
  "2572": " eating",
  "2573": " 12",
  "2574": " weak",
  "2575": " ten",
  "2576": " dev",
  "2577": " class",
  "2578": " pig",
  "2579": "oose",
  "2580": "=,",
  "2581": "though",
  "2582": " prof",
  "2583": "ibus",
  "2584": " balloon",
  "2585": " hit",
  "2586": " faster",
  "2587": "mer",
  "2588": "ubb",
  "2589": " bell",
  "2590": "arp",
  "2591": " honour",
  "2592": " takes",
  "2593": " fox",
  "2594": " chief",
  "2595": " smart",
  "2596": " bath",
  "2597": " Î¿",
  "2598": " sight",
  "2599": " No",
  "2600": " ir",
  "2601": " instead",
  "2602": "á½",
  "2603": " stars",
  "2604": "bers",
  "2605": " getting",
  "2606": "inus",
  "2607": " cookies",
  "2608": " laws",
  "2609": "Î±Î¹",
  "2610": " island",
  "2611": "tern",
  "2612": "cy",
  "2613": " By",
  "2614": " mark",
  "2615": " mum",
  "2616": " See",
  "2617": " rul",
  "2618": " effect",
  "2619": "ility",
  "2620": " decl",
  "2621": " someone",
  "2622": " dangerous",
  "2623": " sharing",
  "2624": " neigh",
  "2625": " cow",
  "2626": " passed",
  "2627": " que",
  "2628": " mult",
  "2629": "While",
  "2630": " lake",
  "2631": " Soon",
  "2632": " sitting",
  "2633": "ality",
  "2634": "uted",
  "2635": "urch",
  "2636": "ases",
  "2637": " ignor",
  "2638": "bs",
  "2639": " Rome",
  "2640": "ats",
  "2641": "ially",
  "2642": "sequ",
  "2643": " destroy",
  "2644": "John",
  "2645": " shr",
  "2646": " Inside",
  "2647": " storm",
  "2648": " neighb",
  "2649": "ON",
  "2650": " bike",
  "2651": " Le",
  "2652": " const",
  "2653": " hath",
  "2654": " Nor",
  "2655": " fig",
  "2656": " beach",
  "2657": " THE",
  "2658": "TI",
  "2659": " discover",
  "2660": " poor",
  "2661": "itch",
  "2662": "OK",
  "2663": " moon",
  "2664": "ina",
  "2665": " silly",
  "2666": " none",
  "2667": "ising",
  "2668": " harm",
  "2669": " bee",
  "2670": " weal",
  "2671": "set",
  "2672": " pal",
  "2673": " divine",
  "2674": "ific",
  "2675": " yourself",
  "2676": " Lila",
  "2677": " aut",
  "2678": " seemed",
  "2679": "pic",
  "2680": " late",
  "2681": " possible",
  "2682": "ÏÎ½",
  "2683": "ination",
  "2684": " bite",
  "2685": " egg",
  "2686": "lla",
  "2687": " Br",
  "2688": " Some",
  "2689": "ament",
  "2690": " deter",
  "2691": " sang",
  "2692": " agree",
  "2693": " retur",
  "2694": "Just",
  "2695": " 13",
  "2696": " doubt",
  "2697": " worried",
  "2698": " 15",
  "2699": "eddy",
  "2700": " breat",
  "2701": " today",
  "2702": " strength",
  "2703": "ipped",
  "2704": " runs",
  "2705": " inj",
  "2706": " mud",
  "2707": " march",
  "2708": " Sarah",
  "2709": " purpose",
  "2710": " smiles",
  "2711": " port",
  "2712": " hist",
  "2713": " welcome",
  "2714": " crying",
  "2715": "ray",
  "2716": " Maybe",
  "2717": " led",
  "2718": " asks",
  "2719": " youth",
  "2720": " bread",
  "2721": " realized",
  "2722": "wise",
  "2723": " perform",
  "2724": " closed",
  "2725": " den",
  "2726": " greatest",
  "2727": " Christ",
  "2728": "----",
  "2729": " eag",
  "2730": "isk",
  "2731": " 14",
  "2732": "ests",
  "2733": " langu",
  "2734": " deliver",
  "2735": " following",
  "2736": " journ",
  "2737": " laughing",
  "2738": " priv",
  "2739": " neck",
  "2740": "ploy",
  "2741": "ship",
  "2742": " main",
  "2743": "imi",
  "2744": "orus",
  "2745": "ys",
  "2746": "ese",
  "2747": " kiss",
  "2748": " 18",
  "2749": " receive",
  "2750": " mere",
  "2751": " honey",
  "2752": "ÎµÎ¹",
  "2753": "medi",
  "2754": "irm",
  "2755": "ging",
  "2756": " answ",
  "2757": " incl",
  "2758": " Ag",
  "2759": "cell",
  "2760": " sick",
  "2761": "pper",
  "2762": " pill",
  "2763": " talking",
  "2764": " promise",
  "2765": " easy",
  "2766": " wide",
  "2767": " shining",
  "2768": " except",
  "2769": " Their",
  "2770": "ella",
  "2771": "empt",
  "2772": " rolled",
  "2773": "cted",
  "2774": " len",
  "2775": " pudd",
  "2776": " touc",
  "2777": " snack",
  "2778": "ilar",
  "2779": "sy",
  "2780": " Where",
  "2781": " comple",
  "2782": " later",
  "2783": " cross",
  "2784": "St",
  "2785": " employ",
  "2786": "ision",
  "2787": " five",
  "2788": " punish",
  "2789": " scar",
  "2790": " blank",
  "2791": " almost",
  "2792": "iety",
  "2793": "tis",
  "2794": " gather",
  "2795": " jar",
  "2796": "ches",
  "2797": " step",
  "2798": " mentioned",
  "2799": " mem",
  "2800": " shell",
  "2801": " sac",
  "2802": " faith",
  "2803": " wonderful",
  "2804": " teach",
  "2805": " quite",
  "2806": " till",
  "2807": " descri",
  "2808": "Amy",
  "2809": " teacher",
  "2810": "Î¿Ï",
  "2811": "sp",
  "2812": "ring",
  "2813": "á½°",
  "2814": "uction",
  "2815": "idge",
  "2816": " conce",
  "2817": " fac",
  "2818": " band",
  "2819": "Ï",
  "2820": " save",
  "2821": "yal",
  "2822": " grew",
  "2823": " milk",
  "2824": " appeared",
  "2825": " separ",
  "2826": " finally",
  "2827": " prep",
  "2828": " shore",
  "2829": ",--",
  "2830": "Maybe",
  "2831": " further",
  "2832": " fighting",
  "2833": " event",
  "2834": "rac",
  "2835": "ih",
  "2836": " Bl",
  "2837": " orange",
  "2838": " quar",
  "2839": " fixed",
  "2840": "under",
  "2841": " ships",
  "2842": " deser",
  "2843": " eleph",
  "2844": " third",
  "2845": " owner",
  "2846": "unch",
  "2847": " sour",
  "2848": " walls",
  "2849": "una",
  "2850": "á¿¶Î½",
  "2851": "ald",
  "2852": "ume",
  "2853": " six",
  "2854": " start",
  "2855": " ur",
  "2856": "ustom",
  "2857": " soup",
  "2858": " Romans",
  "2859": "lu",
  "2860": " sharp",
  "2861": " wisdom",
  "2862": " front",
  "2863": "aly",
  "2864": " acqu",
  "2865": "ots",
  "2866": " stre",
  "2867": " write",
  "2868": " amazing",
  "2869": " treasure",
  "2870": " lone",
  "2871": "haps",
  "2872": " determ",
  "2873": " fat",
  "2874": " buck",
  "2875": "ulus",
  "2876": " esp",
  "2877": " shoes",
  "2878": " bottle",
  "2879": " fairy",
  "2880": "cus",
  "2881": " boun",
  "2882": " host",
  "2883": " snake",
  "2884": " bodies",
  "2885": " mail",
  "2886": " purs",
  "2887": "ative",
  "2888": " juice",
  "2889": " Sh",
  "2890": " occasion",
  "2891": " lonely",
  "2892": "well",
  "2893": " apples",
  "2894": "Fin",
  "2895": "wor",
  "2896": "ils",
  "2897": " path",
  "2898": " magn",
  "2899": " difficult",
  "2900": " Thus",
  "2901": " drew",
  "2902": "for",
  "2903": " shop",
  "2904": " bound",
  "2905": " bask",
  "2906": " fier",
  "2907": " brown",
  "2908": " test",
  "2909": " mighty",
  "2910": " monkey",
  "2911": ",'",
  "2912": " modern",
  "2913": " although",
  "2914": " singing",
  "2915": " disapp",
  "2916": " Billy",
  "2917": " holding",
  "2918": " hom",
  "2919": " circum",
  "2920": " grandma",
  "2921": "Of",
  "2922": " dragon",
  "2923": "OR",
  "2924": " barked",
  "2925": "AN",
  "2926": " remain",
  "2927": " patient",
  "2928": "raid",
  "2929": " van",
  "2930": " Joe",
  "2931": "dle",
  "2932": " wagged",
  "2933": " forget",
  "2934": "ointed",
  "2935": " nose",
  "2936": " cele",
  "2937": " doctor",
  "2938": " 16",
  "2939": " laid",
  "2940": " 19",
  "2941": "iar",
  "2942": "Î¿Î¹",
  "2943": " pleas",
  "2944": " wore",
  "2945": "ancy",
  "2946": "iod",
  "2947": "rop",
  "2948": " women",
  "2949": "Î¿Ï",
  "2950": " crab",
  "2951": " hoped",
  "2952": "ama",
  "2953": "To",
  "2954": " taste",
  "2955": " exam",
  "2956": " touched",
  "2957": "lly",
  "2958": " candy",
  "2959": " liber",
  "2960": "round",
  "2961": "EN",
  "2962": ".â",
  "2963": " several",
  "2964": "iling",
  "2965": "!â",
  "2966": "lus",
  "2967": " sens",
  "2968": " org",
  "2969": "ified",
  "2970": " celebr",
  "2971": " offer",
  "2972": " friendship",
  "2973": " office",
  "2974": " Phil",
  "2975": " shap",
  "2976": "board",
  "2977": "ense",
  "2978": " length",
  "2979": " troo",
  "2980": " village",
  "2981": " language",
  "2982": " paw",
  "2983": " names",
  "2984": " crown",
  "2985": " compl",
  "2986": " pour",
  "2987": " disg",
  "2988": "There",
  "2989": " afraid",
  "2990": " plain",
  "2991": " 17",
  "2992": " OF",
  "2993": " naught",
  "2994": "ateful",
  "2995": "aur",
  "2996": " pow",
  "2997": " basket",
  "2998": " 20",
  "2999": " Tommy",
  "3000": " Tr",
  "3001": " similar",
  "3002": " whatever",
  "3003": "erable",
  "3004": " Alex",
  "3005": " sons",
  "3006": " comb",
  "3007": "race",
  "3008": " fortune",
  "3009": " trouble",
  "3010": " die",
  "3011": " wound",
  "3012": "ux",
  "3013": " sounds",
  "3014": "uous",
  "3015": " blanket",
  "3016": " espec",
  "3017": " delicious",
  "3018": " immedi",
  "3019": "tained",
  "3020": " farmer",
  "3021": "gly",
  "3022": "enty",
  "3023": " myster",
  "3024": " Just",
  "3025": "ÏÎ±",
  "3026": " suddenly",
  "3027": " hell",
  "3028": "erry",
  "3029": " tom",
  "3030": " sheep",
  "3031": " ash",
  "3032": " ang",
  "3033": " citizens",
  "3034": " gar",
  "3035": " De",
  "3036": "cend",
  "3037": " afterwards",
  "3038": " fal",
  "3039": " fine",
  "3040": "cle",
  "3041": " returned",
  "3042": "emies",
  "3043": " giving",
  "3044": "ters",
  "3045": "vious",
  "3046": "iber",
  "3047": " least",
  "3048": " goes",
  "3049": " seat",
  "3050": " during",
  "3051": "cul",
  "3052": " nut",
  "3053": " enemies",
  "3054": "lder",
  "3055": "Mommy",
  "3056": " placed",
  "3057": " added",
  "3058": " push",
  "3059": "onians",
  "3060": "idence",
  "3061": " escape",
  "3062": " scream",
  "3063": "let",
  "3064": " imm",
  "3065": " athen",
  "3066": " natural",
  "3067": "asp",
  "3068": " puddle",
  "3069": "lect",
  "3070": "icero",
  "3071": "icient",
  "3072": " whist",
  "3073": " Mimi",
  "3074": " dropped",
  "3075": " press",
  "3076": " fil",
  "3077": "unes",
  "3078": "adow",
  "3079": "ored",
  "3080": " measure",
  "3081": " card",
  "3082": " speech",
  "3083": " works",
  "3084": "aded",
  "3085": "ists",
  "3086": " entire",
  "3087": " cou",
  "3088": " desp",
  "3089": "inary",
  "3090": " teddy",
  "3091": " kite",
  "3092": "isted",
  "3093": " button",
  "3094": "eus",
  "3095": " prince",
  "3096": " Ap",
  "3097": " quod",
  "3098": " aw",
  "3099": "enes",
  "3100": " eye",
  "3101": " shook",
  "3102": " cities",
  "3103": " plane",
  "3104": " inform",
  "3105": " drove",
  "3106": " half",
  "3107": " tow",
  "3108": "roc",
  "3109": " cray",
  "3110": " cave",
  "3111": " famous",
  "3112": "isa",
  "3113": "Î¿á¿¦",
  "3114": "ocked",
  "3115": "pping",
  "3116": " conqu",
  "3117": " poet",
  "3118": " wing",
  "3119": "ument",
  "3120": " design",
  "3121": " courage",
  "3122": " busy",
  "3123": " tears",
  "3124": " rev",
  "3125": " Cat",
  "3126": " hiding",
  "3127": " eager",
  "3128": " necessary",
  "3129": " proble",
  "3130": " seeing",
  "3131": " especially",
  "3132": " Socrates",
  "3133": " fool",
  "3134": " philosopher",
  "3135": "ucks",
  "3136": "IN",
  "3137": "oses",
  "3138": " rub",
  "3139": " shapes",
  "3140": " jew",
  "3141": "chus",
  "3142": " powerful",
  "3143": " equal",
  "3144": " fill",
  "3145": "ortal",
  "3146": "iant",
  "3147": " nob",
  "3148": "uses",
  "3149": " spin",
  "3150": " lie",
  "3151": " tasty",
  "3152": " sack",
  "3153": " deg",
  "3154": " wra",
  "3155": "bow",
  "3156": " Who",
  "3157": " spread",
  "3158": "Be",
  "3159": " huge",
  "3160": " loc",
  "3161": " justice",
  "3162": " swings",
  "3163": " answered",
  "3164": "uss",
  "3165": " prevent",
  "3166": " ven",
  "3167": "Please",
  "3168": " honest",
  "3169": "á¿",
  "3170": " Am",
  "3171": " lim",
  "3172": " rope",
  "3173": " grace",
  "3174": "á¿",
  "3175": " twins",
  "3176": " Grand",
  "3177": " drive",
  "3178": "ann",
  "3179": " Îµ",
  "3180": " sed",
  "3181": " stream",
  "3182": " action",
  "3183": " Come",
  "3184": " Arist",
  "3185": " pile",
  "3186": "Good",
  "3187": " bri",
  "3188": " sacred",
  "3189": " feels",
  "3190": " deed",
  "3191": " taught",
  "3192": "upt",
  "3193": " der",
  "3194": " bush",
  "3195": " Him",
  "3196": "oke",
  "3197": " shout",
  "3198": "ball",
  "3199": " troops",
  "3200": " naughty",
  "3201": "Î±Î½",
  "3202": "known",
  "3203": " cheese",
  "3204": " contrary",
  "3205": " kinds",
  "3206": " carrot",
  "3207": " gree",
  "3208": "ÎµÎ½",
  "3209": " fing",
  "3210": "iskers",
  "3211": " stories",
  "3212": " sugg",
  "3213": " consequ",
  "3214": " cum",
  "3215": "that",
  "3216": " woke",
  "3217": " queen",
  "3218": " street",
  "3219": "CH",
  "3220": " lord",
  "3221": " slowly",
  "3222": "band",
  "3223": "rs",
  "3224": " perhaps",
  "3225": " organ",
  "3226": "ators",
  "3227": " empty",
  "3228": " soc",
  "3229": " post",
  "3230": " across",
  "3231": " clouds",
  "3232": "reme",
  "3233": "arn",
  "3234": " coat",
  "3235": " instr",
  "3236": " utter",
  "3237": " fruits",
  "3238": " forward",
  "3239": " attack",
  "3240": " useful",
  "3241": " net",
  "3242": " victory",
  "3243": " hidden",
  "3244": " journey",
  "3245": " proc",
  "3246": "iding",
  "3247": " det",
  "3248": " false",
  "3249": " cent",
  "3250": " ordered",
  "3251": " unto",
  "3252": "yond",
  "3253": " mir",
  "3254": " ess",
  "3255": " cheered",
  "3256": " 21",
  "3257": " dig",
  "3258": " incre",
  "3259": " forever",
  "3260": "00",
  "3261": "asts",
  "3262": " beyond",
  "3263": " plants",
  "3264": "á¾",
  "3265": " Not",
  "3266": "itions",
  "3267": " puppy",
  "3268": " Caesar",
  "3269": "wh",
  "3270": " favour",
  "3271": " saved",
  "3272": " sus",
  "3273": " wrote",
  "3274": " advant",
  "3275": " numbers",
  "3276": " thick",
  "3277": " bench",
  "3278": "ea",
  "3279": " fence",
  "3280": " middle",
  "3281": "á½´",
  "3282": " bene",
  "3283": " dish",
  "3284": " enter",
  "3285": "val",
  "3286": " Jen",
  "3287": " immediately",
  "3288": " id",
  "3289": " mountain",
  "3290": "ek",
  "3291": " elephant",
  "3292": "sec",
  "3293": "Ã©",
  "3294": " smooth",
  "3295": " passage",
  "3296": "hest",
  "3297": " 23",
  "3298": "acked",
  "3299": " kingdom",
  "3300": "rass",
  "3301": " lunch",
  "3302": " spring",
  "3303": " teeth",
  "3304": " 24",
  "3305": " hus",
  "3306": "owing",
  "3307": "lig",
  "3308": " distance",
  "3309": " glory",
  "3310": "ibi",
  "3311": " single",
  "3312": " government",
  "3313": " persu",
  "3314": " suit",
  "3315": " exh",
  "3316": " becom",
  "3317": " understood",
  "3318": " sufficient",
  "3319": " birthday",
  "3320": "If",
  "3321": " exper",
  "3322": "Jack",
  "3323": " Fred",
  "3324": " changed",
  "3325": "pe",
  "3326": " Pomp",
  "3327": " Ï",
  "3328": " di",
  "3329": "uel",
  "3330": " beginning",
  "3331": " suppose",
  "3332": " built",
  "3333": "umb",
  "3334": " ugly",
  "3335": " perce",
  "3336": " 25",
  "3337": " impress",
  "3338": " ring",
  "3339": " Plato",
  "3340": " succeed",
  "3341": "ety",
  "3342": "irp",
  "3343": " sla",
  "3344": " cute",
  "3345": " terri",
  "3346": " rainbow",
  "3347": "hab",
  "3348": " rude",
  "3349": " dogs",
  "3350": " Luc",
  "3351": " written",
  "3352": " exerc",
  "3353": "AL",
  "3354": " various",
  "3355": " introd",
  "3356": "sc",
  "3357": " Sc",
  "3358": " stir",
  "3359": " beauty",
  "3360": "llie",
  "3361": " Whiskers",
  "3362": "unk",
  "3363": "Ch",
  "3364": " Blue",
  "3365": " gain",
  "3366": " songs",
  "3367": " lad",
  "3368": " easily",
  "3369": "nes",
  "3370": " Yet",
  "3371": " trust",
  "3372": " cheer",
  "3373": " bugs",
  "3374": "de",
  "3375": " mel",
  "3376": " bitter",
  "3377": " ones",
  "3378": " slain",
  "3379": " shy",
  "3380": " wave",
  "3381": " ep",
  "3382": " affairs",
  "3383": " cloth",
  "3384": " Egypt",
  "3385": " low",
  "3386": "orious",
  "3387": "lied",
  "3388": "TER",
  "3389": " Here",
  "3390": " fif",
  "3391": "ences",
  "3392": " ears",
  "3393": "vi",
  "3394": " mach",
  "3395": " resol",
  "3396": " dolls",
  "3397": " pock",
  "3398": "kin",
  "3399": "era",
  "3400": "itus",
  "3401": " unless",
  "3402": " consid",
  "3403": "ÏÎµ",
  "3404": " perm",
  "3405": " mur",
  "3406": " stret",
  "3407": " helpful",
  "3408": " Emma",
  "3409": " meaning",
  "3410": " husband",
  "3411": " wol",
  "3412": "rated",
  "3413": " upset",
  "3414": "Finally",
  "3415": " protect",
  "3416": " hang",
  "3417": " amazed",
  "3418": " kings",
  "3419": " wicked",
  "3420": "oved",
  "3421": "ending",
  "3422": "ria",
  "3423": " appears",
  "3424": " fut",
  "3425": " stones",
  "3426": " discuss",
  "3427": "THE",
  "3428": " rad",
  "3429": "ference",
  "3430": "arth",
  "3431": " fancy",
  "3432": " dut",
  "3433": " comfort",
  "3434": " tyr",
  "3435": " custom",
  "3436": "ency",
  "3437": " lose",
  "3438": " preser",
  "3439": " judg",
  "3440": " Po",
  "3441": " Ã¾e",
  "3442": " ann",
  "3443": " ourselves",
  "3444": "ls",
  "3445": " choose",
  "3446": "ingu",
  "3447": " joined",
  "3448": "iqu",
  "3449": " princess",
  "3450": " spark",
  "3451": "anus",
  "3452": " lives",
  "3453": "ested",
  "3454": " letters",
  "3455": "rest",
  "3456": " probably",
  "3457": " yield",
  "3458": " vine",
  "3459": " treats",
  "3460": "ashed",
  "3461": "aval",
  "3462": "af",
  "3463": " bless",
  "3464": " meant",
  "3465": " speed",
  "3466": " states",
  "3467": " anx",
  "3468": "ilius",
  "3469": " legs",
  "3470": " follows",
  "3471": " 22",
  "3472": " space",
  "3473": " Thank",
  "3474": "ube",
  "3475": "acle",
  "3476": "ables",
  "3477": "umpy",
  "3478": " original",
  "3479": " latter",
  "3480": " gate",
  "3481": " waves",
  "3482": "ares",
  "3483": " speaking",
  "3484": " pan",
  "3485": "urse",
  "3486": "orted",
  "3487": " While",
  "3488": "RE",
  "3489": "ract",
  "3490": "ene",
  "3491": " covered",
  "3492": " 27",
  "3493": " Per",
  "3494": " fles",
  "3495": " balls",
  "3496": " gray",
  "3497": " judge",
  "3498": " dom",
  "3499": "ulty",
  "3500": "IS",
  "3501": " wand",
  "3502": "ody",
  "3503": " calm",
  "3504": " holy",
  "3505": " mixed",
  "3506": " service",
  "3507": " string",
  "3508": "isf",
  "3509": " bought",
  "3510": " business",
  "3511": " allowed",
  "3512": " confused",
  "3513": " bone",
  "3514": "aem",
  "3515": " philosophy",
  "3516": " anyone",
  "3517": " esse",
  "3518": " coin",
  "3519": " dirt",
  "3520": " neg",
  "3521": " shield",
  "3522": "asted",
  "3523": " noises",
  "3524": "ouses",
  "3525": " robot",
  "3526": " search",
  "3527": " excell",
  "3528": " puzz",
  "3529": "ica",
  "3530": " turtle",
  "3531": "ourse",
  "3532": " si",
  "3533": " sin",
  "3534": "olog",
  "3535": "hod",
  "3536": " Athens",
  "3537": " knows",
  "3538": "My",
  "3539": " fierce",
  "3540": " Greeks",
  "3541": " indiv",
  "3542": " magical",
  "3543": "nic",
  "3544": "ensive",
  "3545": " Remy",
  "3546": " grateful",
  "3547": " matters",
  "3548": " complete",
  "3549": " dece",
  "3550": "onius",
  "3551": " unknown",
  "3552": " habit",
  "3553": " Bella",
  "3554": "uly",
  "3555": " expect",
  "3556": " Mark",
  "3557": " building",
  "3558": "iff",
  "3559": " capt",
  "3560": "ana",
  "3561": " happiness",
  "3562": " stra",
  "3563": " cop",
  "3564": " dwell",
  "3565": " bal",
  "3566": "ealous",
  "3567": " loves",
  "3568": " writ",
  "3569": " demand",
  "3570": " reve",
  "3571": " nation",
  "3572": " hero",
  "3573": " troub",
  "3574": "igned",
  "3575": " feed",
  "3576": " 26",
  "3577": " Athenians",
  "3578": " univers",
  "3579": "oop",
  "3580": " unl",
  "3581": " spoon",
  "3582": " circumst",
  "3583": " inqu",
  "3584": " authority",
  "3585": "ym",
  "3586": " value",
  "3587": " certainly",
  "3588": "fl",
  "3589": " rare",
  "3590": " breath",
  "3591": " Finally",
  "3592": " wit",
  "3593": " ashamed",
  "3594": " support",
  "3595": " silver",
  "3596": " benef",
  "3597": "Sure",
  "3598": " Greek",
  "3599": " fleet",
  "3600": " assist",
  "3601": " Î±",
  "3602": " driver",
  "3603": "omm",
  "3604": " ves",
  "3605": " knowing",
  "3606": " died",
  "3607": " lest",
  "3608": " charge",
  "3609": " depend",
  "3610": "unity",
  "3611": " horn",
  "3612": " impro",
  "3613": " pocket",
  "3614": " flesh",
  "3615": " landed",
  "3616": " Ann",
  "3617": "ishing",
  "3618": " dear",
  "3619": " tu",
  "3620": " fate",
  "3621": " prec",
  "3622": " zoom",
  "3623": " feather",
  "3624": " trip",
  "3625": " circle",
  "3626": " craw",
  "3627": " rose",
  "3628": " sandw",
  "3629": " working",
  "3630": " kitten",
  "3631": " winter",
  "3632": "ique",
  "3633": " Thou",
  "3634": " lucky",
  "3635": " tent",
  "3636": " flight",
  "3637": " faces",
  "3638": " ways",
  "3639": "ming",
  "3640": " subst",
  "3641": "How",
  "3642": " influ",
  "3643": " saf",
  "3644": " giant",
  "3645": " supposed",
  "3646": " 28",
  "3647": "iction",
  "3648": "iving",
  "3649": "rus",
  "3650": " history",
  "3651": " heat",
  "3652": "oid",
  "3653": " inhab",
  "3654": " pointed",
  "3655": "Ã¾",
  "3656": " clever",
  "3657": " offered",
  "3658": " omn",
  "3659": "hood",
  "3660": " hugs",
  "3661": "atus",
  "3662": " multitude",
  "3663": " spider",
  "3664": " cookie",
  "3665": " allow",
  "3666": " wash",
  "3667": " lit",
  "3668": "alt",
  "3669": " freed",
  "3670": " delight",
  "3671": "ern",
  "3672": "abl",
  "3673": " assemb",
  "3674": " spent",
  "3675": " distingu",
  "3676": " spoke",
  "3677": " rise",
  "3678": " Dog",
  "3679": "orum",
  "3680": " waiting",
  "3681": "orses",
  "3682": " rough",
  "3683": " quam",
  "3684": " Ã¾at",
  "3685": " Lisa",
  "3686": " Pers",
  "3687": " oppos",
  "3688": " rule",
  "3689": " puts",
  "3690": " shake",
  "3691": "rec",
  "3692": " nations",
  "3693": " standing",
  "3694": " wolf",
  "3695": " und",
  "3696": " Jim",
  "3697": " distin",
  "3698": " medic",
  "3699": "igg",
  "3700": "ilty",
  "3701": " ma",
  "3702": "what",
  "3703": " punishment",
  "3704": " tells",
  "3705": " spicy",
  "3706": " dra",
  "3707": "utes",
  "3708": "eb",
  "3709": " beak",
  "3710": "ishop",
  "3711": "Hey",
  "3712": " 30",
  "3713": " houses",
  "3714": " Ã",
  "3715": " twenty",
  "3716": " difference",
  "3717": " offic",
  "3718": " colour",
  "3719": " yours",
  "3720": " shows",
  "3721": " problem",
  "3722": " lift",
  "3723": "cean",
  "3724": "osp",
  "3725": " couch",
  "3726": " ignorant",
  "3727": " Grandma",
  "3728": " future",
  "3729": " charm",
  "3730": " whistle",
  "3731": " attempt",
  "3732": "ism",
  "3733": " mer",
  "3734": " noble",
  "3735": "rem",
  "3736": " bucket",
  "3737": " considered",
  "3738": "cript",
  "3739": " individ",
  "3740": " eight",
  "3741": " private",
  "3742": "ires",
  "3743": "hys",
  "3744": " popular",
  "3745": " frag",
  "3746": "Î®",
  "3747": " guilty",
  "3748": " missed",
  "3749": " tie",
  "3750": " Pe",
  "3751": "Come",
  "3752": "yard",
  "3753": " interesting",
  "3754": "orrow",
  "3755": " bark",
  "3756": "mp",
  "3757": " horses",
  "3758": "fice",
  "3759": " fellow",
  "3760": " frequ",
  "3761": "Lila",
  "3762": " advantage",
  "3763": " worth",
  "3764": " Î³",
  "3765": "ips",
  "3766": " snowman",
  "3767": " conduct",
  "3768": " period",
  "3769": " foolish",
  "3770": " match",
  "3771": "Later",
  "3772": " boss",
  "3773": " worthy",
  "3774": " vain",
  "3775": "irg",
  "3776": " ÏÏ",
  "3777": " machine",
  "3778": " watching",
  "3779": " qui",
  "3780": "ission",
  "3781": "eness",
  "3782": " nar",
  "3783": " distur",
  "3784": " praise",
  "3785": " chased",
  "3786": " remark",
  "3787": "inth",
  "3788": ":--",
  "3789": " pin",
  "3790": " record",
  "3791": " 29",
  "3792": "aus",
  "3793": " adventures",
  "3794": " besides",
  "3795": " temper",
  "3796": " thinking",
  "3797": " Leo",
  "3798": " weight",
  "3799": "acedaem",
  "3800": " sake",
  "3801": " satisf",
  "3802": "Å",
  "3803": " existence",
  "3804": "ternal",
  "3805": " finding",
  "3806": " formed",
  "3807": " tid",
  "3808": " emb",
  "3809": "Ã¦us",
  "3810": " Lord",
  "3811": " selfish",
  "3812": "iger",
  "3813": " stepped",
  "3814": " Ab",
  "3815": " vessel",
  "3816": "Or",
  "3817": " grumpy",
  "3818": "pet",
  "3819": " grief",
  "3820": " reading",
  "3821": " condition",
  "3822": "ipe",
  "3823": " principle",
  "3824": " Alexander",
  "3825": "play",
  "3826": " healthy",
  "3827": " court",
  "3828": " plate",
  "3829": "onia",
  "3830": "yrus",
  "3831": " raised",
  "3832": " sticks",
  "3833": "uded",
  "3834": " aid",
  "3835": "anches",
  "3836": "avalry",
  "3837": "oring",
  "3838": " repe",
  "3839": " jealous",
  "3840": " remed",
  "3841": " wasn",
  "3842": "can",
  "3843": " learning",
  "3844": " shelf",
  "3845": "ule",
  "3846": " sacrifice",
  "3847": "icus",
  "3848": " render",
  "3849": " daddy",
  "3850": " 35",
  "3851": " hen",
  "3852": " wealth",
  "3853": "dess",
  "3854": " gently",
  "3855": " oven",
  "3856": "ogn",
  "3857": "ature",
  "3858": "oted",
  "3859": " finish",
  "3860": " pec",
  "3861": " terrible",
  "3862": " property",
  "3863": "AR",
  "3864": " appearance",
  "3865": " cavalry",
  "3866": " tong",
  "3867": "yp",
  "3868": " conn",
  "3869": " oil",
  "3870": " Cor",
  "3871": " embar",
  "3872": " diss",
  "3873": "Ã¦s",
  "3874": " generally",
  "3875": " serious",
  "3876": " ren",
  "3877": " Gods",
  "3878": " branches",
  "3879": " Î´á½²",
  "3880": " barbar",
  "3881": " actions",
  "3882": " practice",
  "3883": " furn",
  "3884": " prefer",
  "3885": " sell",
  "3886": " elder",
  "3887": " motion",
  "3888": " sty",
  "3889": "Î»Î»",
  "3890": "ris",
  "3891": " board",
  "3892": " below",
  "3893": " thirst",
  "3894": "ital",
  "3895": "ample",
  "3896": "ns",
  "3897": " pretended",
  "3898": "assad",
  "3899": " drum",
  "3900": " mal",
  "3901": "rupt",
  "3902": " 31",
  "3903": " chick",
  "3904": " produced",
  "3905": " Luna",
  "3906": " pool",
  "3907": "ented",
  "3908": "acy",
  "3909": " transl",
  "3910": " early",
  "3911": " highest",
  "3912": " determined",
  "3913": " wondered",
  "3914": "pted",
  "3915": " Even",
  "3916": " advice",
  "3917": " Dem",
  "3918": "laim",
  "3919": " concerning",
  "3920": " dread",
  "3921": " messy",
  "3922": "box",
  "3923": "ÏÎ¹",
  "3924": "elly",
  "3925": " lovely",
  "3926": "eem",
  "3927": " superior",
  "3928": "AT",
  "3929": " needs",
  "3930": " figure",
  "3931": " cost",
  "3932": "itary",
  "3933": "For",
  "3934": " discovered",
  "3935": " size",
  "3936": " delay",
  "3937": "rian",
  "3938": " instance",
  "3939": "aped",
  "3940": " Hell",
  "3941": " chance",
  "3942": "inity",
  "3943": " ducks",
  "3944": "vere",
  "3945": " church",
  "3946": "imus",
  "3947": " anger",
  "3948": " study",
  "3949": " repres",
  "3950": " employed",
  "3951": "iest",
  "3952": " statue",
  "3953": "ios",
  "3954": " Îµá¼",
  "3955": "izz",
  "3956": "irpy",
  "3957": "Soon",
  "3958": " pleased",
  "3959": " serve",
  "3960": " cred",
  "3961": " image",
  "3962": " roman",
  "3963": " miserable",
  "3964": "oomy",
  "3965": " jog",
  "3966": "AP",
  "3967": "?â",
  "3968": " King",
  "3969": " pack",
  "3970": " relig",
  "3971": " judgment",
  "3972": "astic",
  "3973": "Chap",
  "3974": " generous",
  "3975": " cart",
  "3976": " occup",
  "3977": " accept",
  "3978": " forgive",
  "3979": " bap",
  "3980": "aff",
  "3981": " sleepy",
  "3982": " reward",
  "3983": " spray",
  "3984": " obed",
  "3985": " Will",
  "3986": "aser",
  "3987": " ende",
  "3988": "Î±Ï",
  "3989": " Ep",
  "3990": "ples",
  "3991": " tea",
  "3992": " hol",
  "3993": " passion",
  "3994": " 32",
  "3995": " souls",
  "3996": " shut",
  "3997": " marched",
  "3998": " Ind",
  "3999": " infant",
  "4000": "ÎµÏ",
  "4001": " ocean",
  "4002": "bus",
  "4003": "yc",
  "4004": "yth",
  "4005": " month",
  "4006": " zoo",
  "4007": " 34",
  "4008": " phone",
  "4009": "aled",
  "4010": " shape",
  "4011": " Many",
  "4012": " christ",
  "4013": " shadow",
  "4014": " due",
  "4015": " conv",
  "4016": " sacrific",
  "4017": " example",
  "4018": " Î¿á½",
  "4019": " i",
  "4020": " constit",
  "4021": " lemon",
  "4022": " dise",
  "4023": "izzy",
  "4024": " endeav",
  "4025": " fought",
  "4026": " poem",
  "4027": " lamp",
  "4028": " relie",
  "4029": " forces",
  "4030": " smelly",
  "4031": " lif",
  "4032": " Molly",
  "4033": " crow",
  "4034": "with",
  "4035": "Îµá¿",
  "4036": " hopes",
  "4037": " establ",
  "4038": " splash",
  "4039": "king",
  "4040": " drawing",
  "4041": " incred",
  "4042": "verse",
  "4043": " fount",
  "4044": " embarrass",
  "4045": " imposs",
  "4046": " Â",
  "4047": " universe",
  "4048": " deb",
  "4049": " Thy",
  "4050": " Somet",
  "4051": " address",
  "4052": " Jill",
  "4053": " stranger",
  "4054": " ordinary",
  "4055": " stage",
  "4056": " ambassad",
  "4057": " lying",
  "4058": " collect",
  "4059": " log",
  "4060": " puzzle",
  "4061": "eous",
  "4062": " fright",
  "4063": " kindness",
  "4064": "RO",
  "4065": " spear",
  "4066": " prove",
  "4067": " admir",
  "4068": " Cicero",
  "4069": "itive",
  "4070": " 39",
  "4071": " regular",
  "4072": "aries",
  "4073": " threat",
  "4074": " distant",
  "4075": " recogn",
  "4076": " 38",
  "4077": " deer",
  "4078": "light",
  "4079": " Ach",
  "4080": " argument",
  "4081": " fold",
  "4082": "ugust",
  "4083": " Con",
  "4084": "oura",
  "4085": " lies",
  "4086": " attend",
  "4087": " bridge",
  "4088": " backyard",
  "4089": " willing",
  "4090": " Your",
  "4091": " bull",
  "4092": "ÏÏ",
  "4093": "elled",
  "4094": " lock",
  "4095": " anxious",
  "4096": " destroyed",
  "4097": " rome",
  "4098": " iron",
  "4099": " pillow",
  "4100": " points",
  "4101": "lies",
  "4102": " vide",
  "4103": " dign",
  "4104": " flag",
  "4105": "á¿Ï",
  "4106": "bes",
  "4107": " wishes",
  "4108": " Cl",
  "4109": " terms",
  "4110": " Ïá½¸",
  "4111": "hus",
  "4112": "esus",
  "4113": "ulf",
  "4114": " palace",
  "4115": " display",
  "4116": " fail",
  "4117": "appy",
  "4118": ";\"",
  "4119": " wearing",
  "4120": " Daddy",
  "4121": " maybe",
  "4122": " asking",
  "4123": " worm",
  "4124": " appointed",
  "4125": " pros",
  "4126": "aches",
  "4127": "ED",
  "4128": " cre",
  "4129": " minds",
  "4130": " possession",
  "4131": " explained",
  "4132": " paid",
  "4133": " height",
  "4134": "IC",
  "4135": " questions",
  "4136": "lius",
  "4137": " complain",
  "4138": " meas",
  "4139": " sailed",
  "4140": " depart",
  "4141": "riage",
  "4142": " market",
  "4143": " civ",
  "4144": " exped",
  "4145": " _",
  "4146": "anced",
  "4147": " fest",
  "4148": " jelly",
  "4149": " rid",
  "4150": "atur",
  "4151": " tend",
  "4152": "antly",
  "4153": "itation",
  "4154": " ants",
  "4155": " ing",
  "4156": " 33",
  "4157": " However",
  "4158": " discip",
  "4159": "olate",
  "4160": " Chirpy",
  "4161": " quae",
  "4162": "ubbles",
  "4163": " allies",
  "4164": " 37",
  "4165": " fake",
  "4166": "met",
  "4167": " imagine",
  "4168": " blow",
  "4169": " consuls",
  "4170": " crayons",
  "4171": " soldier",
  "4172": " falls",
  "4173": " degree",
  "4174": "port",
  "4175": "andy",
  "4176": " fresh",
  "4177": "Î­Î½",
  "4178": " triump",
  "4179": " chase",
  "4180": " prize",
  "4181": " honor",
  "4182": " Such",
  "4183": " Ad",
  "4184": " shame",
  "4185": "ado",
  "4186": " beat",
  "4187": " Lat",
  "4188": "go",
  "4189": " arrow",
  "4190": " chew",
  "4191": " Jerry",
  "4192": " Don",
  "4193": " manif",
  "4194": " attention",
  "4195": " memory",
  "4196": " drank",
  "4197": " sole",
  "4198": " 36",
  "4199": "usion",
  "4200": " sides",
  "4201": " thine",
  "4202": " Mary",
  "4203": " Bunny",
  "4204": " bossy",
  "4205": " á¼Ï",
  "4206": " shirt",
  "4207": "isc",
  "4208": "eless",
  "4209": " swimming",
  "4210": " direct",
  "4211": "utation",
  "4212": " smelled",
  "4213": " Sy",
  "4214": " hoc",
  "4215": " Doggy",
  "4216": " mistake",
  "4217": " glass",
  "4218": " Jew",
  "4219": "enus",
  "4220": " smaller",
  "4221": "Where",
  "4222": "epend",
  "4223": "rog",
  "4224": " encour",
  "4225": " prison",
  "4226": " forms",
  "4227": " soil",
  "4228": " famil",
  "4229": " cries",
  "4230": " tam",
  "4231": " revol",
  "4232": " slaves",
  "4233": " loss",
  "4234": " pure",
  "4235": " spoken",
  "4236": " safety",
  "4237": "iment",
  "4238": " opport",
  "4239": " ladder",
  "4240": "istent",
  "4241": "ses",
  "4242": " position",
  "4243": "peror",
  "4244": " claim",
  "4245": " golden",
  "4246": " fled",
  "4247": " descend",
  "4248": " influence",
  "4249": " remind",
  "4250": " alt",
  "4251": "will",
  "4252": " news",
  "4253": " Ollie",
  "4254": " wheel",
  "4255": " eggs",
  "4256": "ari",
  "4257": " sudden",
  "4258": " Momo",
  "4259": " beneath",
  "4260": " pit",
  "4261": " jumping",
  "4262": " defe",
  "4263": " Are",
  "4264": "gu",
  "4265": " mirror",
  "4266": " desired",
  "4267": " alarm",
  "4268": " dust",
  "4269": "rect",
  "4270": " entered",
  "4271": " seven",
  "4272": " lazy",
  "4273": " using",
  "4274": " difficulty",
  "4275": " cozy",
  "4276": " belonged",
  "4277": " 40",
  "4278": " flame",
  "4279": " mass",
  "4280": "ration",
  "4281": " tongue",
  "4282": " leaving",
  "4283": " phys",
  "4284": "ival",
  "4285": " situ",
  "4286": " weap",
  "4287": " desir",
  "4288": " boys",
  "4289": "Î¾",
  "4290": " causes",
  "4291": "erous",
  "4292": " painted",
  "4293": " onto",
  "4294": " tidy",
  "4295": " yog",
  "4296": " impossible",
  "4297": " merely",
  "4298": " liberty",
  "4299": " alive",
  "4300": "aving",
  "4301": "ccording",
  "4302": " loyal",
  "4303": "itur",
  "4304": " incredible",
  "4305": "ift",
  "4306": " rocket",
  "4307": " cher",
  "4308": "10",
  "4309": "uments",
  "4310": " scatter",
  "4311": " dancing",
  "4312": " thunder",
  "4313": "edic",
  "4314": " bott",
  "4315": " cleaned",
  "4316": "anted",
  "4317": " gifts",
  "4318": "oly",
  "4319": " independ",
  "4320": " contem",
  "4321": " tomorrow",
  "4322": " duty",
  "4323": " rat",
  "4324": " tries",
  "4325": "omed",
  "4326": " twist",
  "4327": " powers",
  "4328": " peaceful",
  "4329": " compass",
  "4330": " fallen",
  "4331": " gall",
  "4332": " smiling",
  "4333": "utus",
  "4334": " applied",
  "4335": " modest",
  "4336": " om",
  "4337": " foreign",
  "4338": " kick",
  "4339": " shoot",
  "4340": " royal",
  "4341": " slave",
  "4342": " da",
  "4343": " behold",
  "4344": " borrow",
  "4345": " straight",
  "4346": "mus",
  "4347": "acles",
  "4348": "onian",
  "4349": " extra",
  "4350": " refer",
  "4351": " killed",
  "4352": " opposite",
  "4353": " company",
  "4354": "ollo",
  "4355": "Î±Ï",
  "4356": " Together",
  "4357": "asing",
  "4358": " rej",
  "4359": " grat",
  "4360": " creature",
  "4361": " nerv",
  "4362": " knee",
  "4363": "ighted",
  "4364": "angers",
  "4365": "cil",
  "4366": " explain",
  "4367": " dol",
  "4368": " summer",
  "4369": " weep",
  "4370": "An",
  "4371": "like",
  "4372": "come",
  "4373": " block",
  "4374": " observed",
  "4375": " polite",
  "4376": "Here",
  "4377": " drawn",
  "4378": "just",
  "4379": " base",
  "4380": " Ïá¿¶Î½",
  "4381": " veget",
  "4382": " bold",
  "4383": " gathered",
  "4384": " truly",
  "4385": " Jove",
  "4386": " track",
  "4387": "oli",
  "4388": " adop",
  "4389": " remains",
  "4390": " oblig",
  "4391": " inhabit",
  "4392": " env",
  "4393": " Please",
  "4394": "rees",
  "4395": " forb",
  "4396": " firm",
  "4397": "Sally",
  "4398": " sandwich",
  "4399": " medicine",
  "4400": " thence",
  "4401": "work",
  "4402": "upiter",
  "4403": " calls",
  "4404": "aked",
  "4405": " moving",
  "4406": "of",
  "4407": "á½´Î½",
  "4408": "asons",
  "4409": "omer",
  "4410": " boring",
  "4411": " orders",
  "4412": " decor",
  "4413": " orn",
  "4414": " mysterious",
  "4415": " obey",
  "4416": " skill",
  "4417": " cere",
  "4418": "Me",
  "4419": " root",
  "4420": "ourable",
  "4421": " accident",
  "4422": " deal",
  "4423": " scarf",
  "4424": " imper",
  "4425": " observe",
  "4426": " notice",
  "4427": "ler",
  "4428": " witness",
  "4429": "otle",
  "4430": "ishes",
  "4431": " worse",
  "4432": " Go",
  "4433": " map",
  "4434": " condem",
  "4435": "mal",
  "4436": " resemb",
  "4437": " merc",
  "4438": " pizz",
  "4439": " quarrel",
  "4440": " creative",
  "4441": " ber",
  "4442": " salt",
  "4443": " sorrow",
  "4444": "co",
  "4445": " screamed",
  "4446": " guess",
  "4447": "pon",
  "4448": "Kitty",
  "4449": "head",
  "4450": " burn",
  "4451": "eral",
  "4452": " noisy",
  "4453": "kind",
  "4454": "Well",
  "4455": " unus",
  "4456": " clown",
  "4457": "ously",
  "4458": "ighed",
  "4459": "ihi",
  "4460": " furry",
  "4461": " result",
  "4462": "pa",
  "4463": " entertain",
  "4464": " splashed",
  "4465": " dull",
  "4466": " priest",
  "4467": " exact",
  "4468": " cam",
  "4469": "idem",
  "4470": " cf",
  "4471": " divided",
  "4472": " hence",
  "4473": " bald",
  "4474": " Pr",
  "4475": " hearing",
  "4476": " ach",
  "4477": " 42",
  "4478": " whence",
  "4479": " strugg",
  "4480": " acts",
  "4481": " becomes",
  "4482": "By",
  "4483": " Un",
  "4484": " entirely",
  "4485": "Who",
  "4486": " whis",
  "4487": "tus",
  "4488": " roof",
  "4489": "iance",
  "4490": " unh",
  "4491": " fem",
  "4492": " wret",
  "4493": " gro",
  "4494": " Bird",
  "4495": " chari",
  "4496": " AN",
  "4497": " skin",
  "4498": " hears",
  "4499": " TV",
  "4500": " shade",
  "4501": " pir",
  "4502": " intelligence",
  "4503": " seeds",
  "4504": " grou",
  "4505": " xxx",
  "4506": " resist",
  "4507": "iches",
  "4508": " infer",
  "4509": " pizza",
  "4510": " bounce",
  "4511": " nearby",
  "4512": " Sometimes",
  "4513": " proof",
  "4514": " brill",
  "4515": " consequence",
  "4516": " prepared",
  "4517": " chest",
  "4518": "ify",
  "4519": "host",
  "4520": "aze",
  "4521": " qual",
  "4522": " delivered",
  "4523": " military",
  "4524": " ambassadors",
  "4525": " calling",
  "4526": " counsel",
  "4527": " breast",
  "4528": " triumph",
  "4529": " necessity",
  "4530": " grown",
  "4531": "Ã¦sar",
  "4532": " inn",
  "4533": " 45",
  "4534": " tasted",
  "4535": " Bear",
  "4536": " hy",
  "4537": " unp",
  "4538": " thirty",
  "4539": " obtain",
  "4540": " mortal",
  "4541": " believed",
  "4542": "Hel",
  "4543": " raise",
  "4544": " Ï",
  "4545": " quant",
  "4546": "oons",
  "4547": "ocles",
  "4548": " romans",
  "4549": " likewise",
  "4550": " corner",
  "4551": "zard",
  "4552": " derived",
  "4553": " doth",
  "4554": " cases",
  "4555": " fountain",
  "4556": " admit",
  "4557": " dare",
  "4558": "alk",
  "4559": "iable",
  "4560": " equally",
  "4561": "ushed",
  "4562": " doctr",
  "4563": " motor",
  "4564": " polit",
  "4565": " falling",
  "4566": "iden",
  "4567": "icket",
  "4568": "bb",
  "4569": " simple",
  "4570": " choc",
  "4571": " expensive",
  "4572": " sup",
  "4573": " mut",
  "4574": "gar",
  "4575": " content",
  "4576": " kill",
  "4577": " style",
  "4578": "Al",
  "4579": " ox",
  "4580": " jewel",
  "4581": " torn",
  "4582": " Ac",
  "4583": "ev",
  "4584": " worship",
  "4585": "inn",
  "4586": " wander",
  "4587": "urt",
  "4588": " finger",
  "4589": " refused",
  "4590": " brothers",
  "4591": "inius",
  "4592": " affect",
  "4593": " invited",
  "4594": " berries",
  "4595": "eep",
  "4596": " hello",
  "4597": " careless",
  "4598": " successful",
  "4599": " joke",
  "4600": "itate",
  "4601": " esteem",
  "4602": " stronger",
  "4603": " absol",
  "4604": " wealthy",
  "4605": " hate",
  "4606": " nervous",
  "4607": "oul",
  "4608": " tax",
  "4609": " balance",
  "4610": "phone",
  "4611": " territ",
  "4612": "oras",
  "4613": " bears",
  "4614": " grant",
  "4615": "ompl",
  "4616": " sque",
  "4617": " goat",
  "4618": " surf",
  "4619": " miles",
  "4620": " separate",
  "4621": "erus",
  "4622": " troubled",
  "4623": " whale",
  "4624": " interp",
  "4625": " ol",
  "4626": "vell",
  "4627": " icy",
  "4628": "'.",
  "4629": "anes",
  "4630": "was",
  "4631": " aud",
  "4632": "att",
  "4633": " method",
  "4634": " arr",
  "4635": "upid",
  "4636": " washed",
  "4637": " mihi",
  "4638": " dug",
  "4639": "ache",
  "4640": " snee",
  "4641": " gun",
  "4642": " roar",
  "4643": " supply",
  "4644": " bloom",
  "4645": " mountains",
  "4646": " illust",
  "4647": " Italy",
  "4648": "reg",
  "4649": "arks",
  "4650": " relieved",
  "4651": " steal",
  "4652": " tele",
  "4653": " Greece",
  "4654": "arl",
  "4655": " produce",
  "4656": " compet",
  "4657": " marriage",
  "4658": " cab",
  "4659": " Pro",
  "4660": " writing",
  "4661": " rules",
  "4662": " asleep",
  "4663": " chocolate",
  "4664": " clay",
  "4665": " 41",
  "4666": "pes",
  "4667": " á¼",
  "4668": " Spart",
  "4669": " extreme",
  "4670": "ibly",
  "4671": " harsh",
  "4672": "Stop",
  "4673": " rank",
  "4674": " 44",
  "4675": " dinos",
  "4676": " unusual",
  "4677": " pump",
  "4678": "orts",
  "4679": "oqu",
  "4680": "ubborn",
  "4681": " ib",
  "4682": "gress",
  "4683": " convers",
  "4684": " station",
  "4685": "aint",
  "4686": " heads",
  "4687": " bottom",
  "4688": " Cle",
  "4689": " created",
  "4690": " =-",
  "4691": " occur",
  "4692": " thoughts",
  "4693": "pir",
  "4694": " enorm",
  "4695": "inite",
  "4696": " destr",
  "4697": " stubborn",
  "4698": "ugar",
  "4699": " prev",
  "4700": " goddess",
  "4701": " Bobby",
  "4702": " Tiny",
  "4703": " meal",
  "4704": "sses",
  "4705": " embarrassed",
  "4706": "urity",
  "4707": " vent",
  "4708": " pos",
  "4709": " recomm",
  "4710": "place",
  "4711": " experience",
  "4712": " clap",
  "4713": " quid",
  "4714": " balloons",
  "4715": " mic",
  "4716": " affection",
  "4717": " weird",
  "4718": " brush",
  "4719": "rid",
  "4720": "heus",
  "4721": " tear",
  "4722": "isions",
  "4723": " brilliant",
  "4724": " presence",
  "4725": " gained",
  "4726": "ption",
  "4727": "ET",
  "4728": " surround",
  "4729": " belongs",
  "4730": " driven",
  "4731": "ipio",
  "4732": " showing",
  "4733": " print",
  "4734": " soap",
  "4735": " enim",
  "4736": " relax",
  "4737": " province",
  "4738": " frust",
  "4739": "ground",
  "4740": "yl",
  "4741": " cel",
  "4742": " sle",
  "4743": " choice",
  "4744": " confess",
  "4745": " bees",
  "4746": " sought",
  "4747": " smoke",
  "4748": " vest",
  "4749": "iae",
  "4750": " bul",
  "4751": " ham",
  "4752": " dizzy",
  "4753": "right",
  "4754": " remained",
  "4755": " square",
  "4756": " sink",
  "4757": "ician",
  "4758": " whisper",
  "4759": " objects",
  "4760": "ooked",
  "4761": "issors",
  "4762": " kid",
  "4763": " neighbour",
  "4764": " |",
  "4765": " tape",
  "4766": " straw",
  "4767": " philosophers",
  "4768": "but",
  "4769": " shown",
  "4770": "elop",
  "4771": " frightened",
  "4772": " jam",
  "4773": " glue",
  "4774": "XX",
  "4775": " holds",
  "4776": "Help",
  "4777": "ales",
  "4778": "ashion",
  "4779": " vase",
  "4780": " deeds",
  "4781": " sugar",
  "4782": "render",
  "4783": "ox",
  "4784": " shine",
  "4785": " lands",
  "4786": " task",
  "4787": " independent",
  "4788": " oper",
  "4789": " whereas",
  "4790": " knocked",
  "4791": " II",
  "4792": " gates",
  "4793": " cruel",
  "4794": " poured",
  "4795": " lic",
  "4796": " temp",
  "4797": " opportunity",
  "4798": " Benny",
  "4799": " excellent",
  "4800": " arist",
  "4801": " team",
  "4802": "unc",
  "4803": " profess",
  "4804": " fearful",
  "4805": "hold",
  "4806": " principles",
  "4807": " term",
  "4808": "ores",
  "4809": "arer",
  "4810": "imin",
  "4811": " health",
  "4812": " feast",
  "4813": " Maced",
  "4814": " accompl",
  "4815": " unity",
  "4816": "arily",
  "4817": " accus",
  "4818": " scissors",
  "4819": " lines",
  "4820": " magist",
  "4821": " hind",
  "4822": " carrying",
  "4823": " compan",
  "4824": " delicate",
  "4825": " yelled",
  "4826": " struck",
  "4827": "osen",
  "4828": " addition",
  "4829": " prophet",
  "4830": " fault",
  "4831": " closet",
  "4832": " Bu",
  "4833": "Tommy",
  "4834": " proved",
  "4835": " decide",
  "4836": " Î¸",
  "4837": " gloomy",
  "4838": " defend",
  "4839": " trick",
  "4840": "ards",
  "4841": " wouldn",
  "4842": "lend",
  "4843": "quam",
  "4844": " pecul",
  "4845": " hosp",
  "4846": " group",
  "4847": " micro",
  "4848": " normal",
  "4849": " uncle",
  "4850": " enormous",
  "4851": " circumstances",
  "4852": "ito",
  "4853": " silence",
  "4854": " cage",
  "4855": " numerous",
  "4856": " ghost",
  "4857": " Sic",
  "4858": " undert",
  "4859": " vers",
  "4860": "know",
  "4861": " otherwise",
  "4862": " spoiled",
  "4863": " maid",
  "4864": " whenever",
  "4865": " bore",
  "4866": " stretch",
  "4867": "erp",
  "4868": " invent",
  "4869": " fame",
  "4870": " obtained",
  "4871": " bishop",
  "4872": "ata",
  "4873": " etc",
  "4874": " possessed",
  "4875": " glow",
  "4876": " stupid",
  "4877": " poison",
  "4878": "roj",
  "4879": "--------",
  "4880": " gigg",
  "4881": " avoid",
  "4882": " formerly",
  "4883": " mankind",
  "4884": " maintain",
  "4885": "arius",
  "4886": " commanded",
  "4887": " According",
  "4888": " removed",
  "4889": "ucted",
  "4890": "seus",
  "4891": " ruin",
  "4892": "ortion",
  "4893": ",-",
  "4894": "ays",
  "4895": " impl",
  "4896": " Arg",
  "4897": " bid",
  "4898": " opinions",
  "4899": " mater",
  "4900": " resc",
  "4901": " od",
  "4902": " counted",
  "4903": " meat",
  "4904": "á½Ï",
  "4905": " dreams",
  "4906": " trump",
  "4907": " mill",
  "4908": " gets",
  "4909": "ugh",
  "4910": " thrown",
  "4911": "ihil",
  "4912": " mov",
  "4913": " triang",
  "4914": " ruined",
  "4915": " humble",
  "4916": " scare",
  "4917": "stead",
  "4918": " flute",
  "4919": " commun",
  "4920": " elderly",
  "4921": " wake",
  "4922": " bake",
  "4923": " peculiar",
  "4924": " Ducky",
  "4925": " knife",
  "4926": " Lacedaem",
  "4927": " picnic",
  "4928": "now",
  "4929": " kicked",
  "4930": "ÏÎ½",
  "4931": " sear",
  "4932": " happens",
  "4933": " repro",
  "4934": " surrender",
  "4935": " scale",
  "4936": " ador",
  "4937": " chosen",
  "4938": "henes",
  "4939": " sett",
  "4940": "uing",
  "4941": " stuff",
  "4942": "ague",
  "4943": " absolute",
  "4944": " Pompey",
  "4945": " stands",
  "4946": "ippus",
  "4947": "ula",
  "4948": "fish",
  "4949": " organized",
  "4950": " cone",
  "4951": " harb",
  "4952": " alter",
  "4953": " caused",
  "4954": "atic",
  "4955": "achus",
  "4956": " hardly",
  "4957": " vast",
  "4958": " quo",
  "4959": "isse",
  "4960": " text",
  "4961": " shoe",
  "4962": " reign",
  "4963": " steps",
  "4964": " beasts",
  "4965": " sock",
  "4966": " ideas",
  "4967": " cheap",
  "4968": "IT",
  "4969": " eternal",
  "4970": "uces",
  "4971": " tun",
  "4972": "li",
  "4973": "oned",
  "4974": " mild",
  "4975": " dove",
  "4976": " dict",
  "4977": " ident",
  "4978": " chose",
  "4979": " raven",
  "4980": " understanding",
  "4981": "robe",
  "4982": " particularly",
  "4983": " cens",
  "4984": " clock",
  "4985": "agoras",
  "4986": " disturb",
  "4987": " fashion",
  "4988": "Î¿á¿",
  "4989": " lower",
  "4990": " contain",
  "4991": " ending",
  "4992": " waste",
  "4993": " season",
  "4994": "Î²",
  "4995": "usting",
  "4996": "ÎµÎ¯",
  "4997": "nest",
  "4998": " suffered",
  "4999": " ;",
  "5000": "idenote",
  "5001": " keeping",
  "5002": " wheat",
  "5003": " gem",
  "5004": " obedient",
  "5005": "xx",
  "5006": " lux",
  "5007": "enced",
  "5008": " Zeus",
  "5009": " Gaul",
  "5010": " pale",
  "5011": " celebrated",
  "5012": " á½",
  "5013": " frame",
  "5014": " Homer",
  "5015": "EM",
  "5016": " freedom",
  "5017": " pains",
  "5018": " frustrated",
  "5019": "cules",
  "5020": "ola",
  "5021": "elius",
  "5022": " flour",
  "5023": " unique",
  "5024": " iss",
  "5025": "Î¼Î±",
  "5026": " unjust",
  "5027": "olis",
  "5028": "asis",
  "5029": " hall",
  "5030": "Sidenote",
  "5031": " meeting",
  "5032": " putting",
  "5033": " tough",
  "5034": " rag",
  "5035": " socrates",
  "5036": " thankful",
  "5037": " 43",
  "5038": "III",
  "5039": " increase",
  "5040": "ait",
  "5041": "ÏÎ¹",
  "5042": " arts",
  "5043": " expression",
  "5044": "ulous",
  "5045": " fragile",
  "5046": " lust",
  "5047": " tied",
  "5048": " prim",
  "5049": " tum",
  "5050": "Dad",
  "5051": " violence",
  "5052": "ails",
  "5053": " subm",
  "5054": " subjects",
  "5055": " moms",
  "5056": " comfortable",
  "5057": " wagon",
  "5058": "lysses",
  "5059": " civil",
  "5060": " assembly",
  "5061": " neighbor",
  "5062": "aeus",
  "5063": " yarn",
  "5064": " generals",
  "5065": " assistance",
  "5066": " cheerful",
  "5067": " rug",
  "5068": " neckl",
  "5069": " thirsty",
  "5070": " searched",
  "5071": " qua",
  "5072": " Att",
  "5073": "erman",
  "5074": "berry",
  "5075": " lifted",
  "5076": " forced",
  "5077": " painting",
  "5078": " Mama",
  "5079": " virg",
  "5080": " 46",
  "5081": " universal",
  "5082": " labour",
  "5083": "reen",
  "5084": "aching",
  "5085": "yn",
  "5086": " lat",
  "5087": " elev",
  "5088": "gest",
  "5089": " twel",
  "5090": "ecause",
  "5091": "rum",
  "5092": " Î±á½Ï",
  "5093": " clum",
  "5094": " preced",
  "5095": "á½¸Ï",
  "5096": " cult",
  "5097": " hour",
  "5098": " clearly",
  "5099": " towel",
  "5100": " vig",
  "5101": " repair",
  "5102": " compassion",
  "5103": " exec",
  "5104": " pressed",
  "5105": " hipp",
  "5106": " Again",
  "5107": " aim",
  "5108": " individual",
  "5109": " pomp",
  "5110": " tribunes",
  "5111": "Is",
  "5112": " fields",
  "5113": " attract",
  "5114": " pil",
  "5115": " wrap",
  "5116": " Those",
  "5117": "illes",
  "5118": " consc",
  "5119": " murder",
  "5120": "icles",
  "5121": " stamp",
  "5122": " exercise",
  "5123": "atch",
  "5124": " jug",
  "5125": " hose",
  "5126": " thanks",
  "5127": " educ",
  "5128": " feelings",
  "5129": " barn",
  "5130": " liter",
  "5131": " marry",
  "5132": " cabin",
  "5133": " shark",
  "5134": "theless",
  "5135": " thread",
  "5136": "ners",
  "5137": " Me",
  "5138": "acus",
  "5139": " previous",
  "5140": " Troy",
  "5141": " tim",
  "5142": " sire",
  "5143": "itar",
  "5144": "Every",
  "5145": " scarce",
  "5146": " speaks",
  "5147": "ti",
  "5148": " ig",
  "5149": "ah",
  "5150": " crime",
  "5151": " acorn",
  "5152": "CHAP",
  "5153": " Men",
  "5154": " swift",
  "5155": "rise",
  "5156": " destruction",
  "5157": " Su",
  "5158": " clumsy",
  "5159": " exciting",
  "5160": " exploring",
  "5161": " inhabitants",
  "5162": " Therefore",
  "5163": " waters",
  "5164": "lexible",
  "5165": " pumpkin",
  "5166": "vii",
  "5167": "osing",
  "5168": " Philip",
  "5169": " Jews",
  "5170": " attrib",
  "5171": " unf",
  "5172": " bubbles",
  "5173": " shalt",
  "5174": " umb",
  "5175": "Are",
  "5176": " Cato",
  "5177": " described",
  "5178": " witch",
  "5179": " batter",
  "5180": " lean",
  "5181": " arrang",
  "5182": " nuts",
  "5183": "orry",
  "5184": " dolph",
  "5185": " dinosaur",
  "5186": " boot",
  "5187": "rup",
  "5188": " considerable",
  "5189": "ucius",
  "5190": " crazy",
  "5191": "wo",
  "5192": "ults",
  "5193": " blessed",
  "5194": " pleasures",
  "5195": " tomato",
  "5196": " distinguished",
  "5197": " flood",
  "5198": " frown",
  "5199": " etiam",
  "5200": " likely",
  "5201": "shine",
  "5202": " oath",
  "5203": " spend",
  "5204": "acious",
  "5205": "ilst",
  "5206": " declared",
  "5207": " usual",
  "5208": "Î¼ÎµÎ½",
  "5209": "ik",
  "5210": "udes",
  "5211": " hairy",
  "5212": " winds",
  "5213": " fathers",
  "5214": "ionys",
  "5215": " paws",
  "5216": " goose",
  "5217": " corrupt",
  "5218": " benefit",
  "5219": "umber",
  "5220": "itable",
  "5221": "Together",
  "5222": "ullus",
  "5223": " More",
  "5224": " prin",
  "5225": " legions",
  "5226": "ÏÎ±",
  "5227": " boats",
  "5228": " escaped",
  "5229": " flash",
  "5230": " Hel",
  "5231": " reference",
  "5232": " penc",
  "5233": "idas",
  "5234": " á¼",
  "5235": " Î»",
  "5236": " egypt",
  "5237": " libr",
  "5238": " pride",
  "5239": " solve",
  "5240": " nosy",
  "5241": "È",
  "5242": "hend",
  "5243": "á¾½",
  "5244": " cham",
  "5245": " ax",
  "5246": " bathroom",
  "5247": " pepper",
  "5248": " nearly",
  "5249": "rius",
  "5250": " dignity",
  "5251": "reek",
  "5252": " vel",
  "5253": " buried",
  "5254": " tiger",
  "5255": " fan",
  "5256": " ÏÎ¿á¿¦",
  "5257": " create",
  "5258": " brings",
  "5259": " prophe",
  "5260": " accord",
  "5261": "Ï",
  "5262": " apart",
  "5263": " seized",
  "5264": "vet",
  "5265": " native",
  "5266": "esides",
  "5267": " united",
  "5268": " wool",
  "5269": "oday",
  "5270": "ding",
  "5271": " hearts",
  "5272": " Herod",
  "5273": " shiver",
  "5274": " swan",
  "5275": "urous",
  "5276": "vid",
  "5277": " cats",
  "5278": "hens",
  "5279": " request",
  "5280": " virtues",
  "5281": " diver",
  "5282": " ere",
  "5283": " homes",
  "5284": " inferior",
  "5285": " coast",
  "5286": "á½²Î½",
  "5287": " crack",
  "5288": " granted",
  "5289": "aph",
  "5290": " greatly",
  "5291": "ailed",
  "5292": "SS",
  "5293": " chicken",
  "5294": " bringing",
  "5295": " sunfl",
  "5296": "rehend",
  "5297": "rocod",
  "5298": " blind",
  "5299": "mble",
  "5300": " empire",
  "5301": "laud",
  "5302": " growing",
  "5303": " portion",
  "5304": " afford",
  "5305": " uns",
  "5306": " tit",
  "5307": "ÏÏ",
  "5308": "etus",
  "5309": "yd",
  "5310": " festival",
  "5311": " Ne",
  "5312": " Ella",
  "5313": "anut",
  "5314": " passing",
  "5315": " writers",
  "5316": " Instead",
  "5317": " sunshine",
  "5318": " scri",
  "5319": " Pet",
  "5320": " discourse",
  "5321": " quality",
  "5322": " depri",
  "5323": " dost",
  "5324": "arian",
  "5325": " marble",
  "5326": " substance",
  "5327": "illa",
  "5328": " Cyrus",
  "5329": " disgrace",
  "5330": "ception",
  "5331": " rode",
  "5332": "rose",
  "5333": " constr",
  "5334": " slew",
  "5335": " Af",
  "5336": "long",
  "5337": " assert",
  "5338": " conquer",
  "5339": "lected",
  "5340": "imp",
  "5341": " reck",
  "5342": " atque",
  "5343": " established",
  "5344": " rap",
  "5345": " bill",
  "5346": " flexible",
  "5347": " nurse",
  "5348": " abund",
  "5349": " caesar",
  "5350": " misfort",
  "5351": " message",
  "5352": " Rex",
  "5353": " squee",
  "5354": " sevent",
  "5355": "ÏÎ¸",
  "5356": " territory",
  "5357": " pige",
  "5358": " gum",
  "5359": " secure",
  "5360": "zed",
  "5361": "anny",
  "5362": " borne",
  "5363": "',",
  "5364": "viii",
  "5365": " Sen",
  "5366": " salad",
  "5367": "while",
  "5368": " vessels",
  "5369": " approach",
  "5370": " obsc",
  "5371": "Socrates",
  "5372": " filthy",
  "5373": " Ex",
  "5374": "CHAPTER",
  "5375": " intelligent",
  "5376": " reply",
  "5377": "umes",
  "5378": "pond",
  "5379": " wilt",
  "5380": " memb",
  "5381": " bent",
  "5382": "aps",
  "5383": " engaged",
  "5384": "Ã©e",
  "5385": "Î¿á¿Ï",
  "5386": " trumpet",
  "5387": " viii",
  "5388": "equ",
  "5389": "tole",
  "5390": " helpless",
  "5391": "Their",
  "5392": " cube",
  "5393": "arted",
  "5394": " adventurous",
  "5395": "rol",
  "5396": " serp",
  "5397": " necklace",
  "5398": "ept",
  "5399": " vegetables",
  "5400": " advanced",
  "5401": " mort",
  "5402": " bored",
  "5403": " price",
  "5404": "iate",
  "5405": "OU",
  "5406": " fourth",
  "5407": "á½º",
  "5408": " Andy",
  "5409": " Which",
  "5410": " dam",
  "5411": "rate",
  "5412": " hither",
  "5413": " CÃ¦sar",
  "5414": " crocod",
  "5415": " deaf",
  "5416": " nods",
  "5417": " hay",
  "5418": " III",
  "5419": " Brown",
  "5420": "umed",
  "5421": "agin",
  "5422": " Our",
  "5423": " angel",
  "5424": " celebrate",
  "5425": " potato",
  "5426": " uncom",
  "5427": " remove",
  "5428": " poets",
  "5429": "ST",
  "5430": " helmet",
  "5431": "together",
  "5432": "ianus",
  "5433": " jet",
  "5434": "gn",
  "5435": " punished",
  "5436": " disgusting",
  "5437": " hours",
  "5438": " crane",
  "5439": " hoop",
  "5440": " 47",
  "5441": "lish",
  "5442": " decree",
  "5443": "ishment",
  "5444": " 48",
  "5445": " Q",
  "5446": " por",
  "5447": " melt",
  "5448": " immortal",
  "5449": " twelve",
  "5450": " darkness",
  "5451": " stro",
  "5452": " AND",
  "5453": " distinct",
  "5454": "soever",
  "5455": "ibal",
  "5456": " shel",
  "5457": " aside",
  "5458": " Marcus",
  "5459": "hem",
  "5460": " guitar",
  "5461": " chain",
  "5462": " defence",
  "5463": " relation",
  "5464": " Med",
  "5465": " resolved",
  "5466": " hats",
  "5467": "ien",
  "5468": "imate",
  "5469": "corn",
  "5470": " entreat",
  "5471": " travel",
  "5472": " walks",
  "5473": " Î´Î¹",
  "5474": " creatures",
  "5475": " process",
  "5476": " eloqu",
  "5477": "vey",
  "5478": " feathers",
  "5479": " events",
  "5480": " towers",
  "5481": " science",
  "5482": " desires",
  "5483": " admire",
  "5484": " glorious",
  "5485": " telling",
  "5486": " earl",
  "5487": "ulation",
  "5488": "gl",
  "5489": " fifty",
  "5490": " sauce",
  "5491": " indic",
  "5492": " naturally",
  "5493": "alus",
  "5494": " dough",
  "5495": " anch",
  "5496": "urg",
  "5497": " jack",
  "5498": " error",
  "5499": " ener",
  "5500": "ening",
  "5501": " exceed",
  "5502": "eius",
  "5503": "erpill",
  "5504": " caterpill",
  "5505": " slipped",
  "5506": " thyself",
  "5507": " fingers",
  "5508": " jo",
  "5509": " spoil",
  "5510": " pa",
  "5511": "Ph",
  "5512": " reputation",
  "5513": " snacks",
  "5514": " temples",
  "5515": " midst",
  "5516": "Not",
  "5517": " retreat",
  "5518": " cord",
  "5519": " spell",
  "5520": " corp",
  "5521": "ÏÎ¿",
  "5522": " August",
  "5523": " tooth",
  "5524": " mole",
  "5525": " lightning",
  "5526": " á½",
  "5527": " check",
  "5528": " altogether",
  "5529": " brace",
  "5530": " beet",
  "5531": " proportion",
  "5532": " True",
  "5533": " ÏÎ¿",
  "5534": " Jimmy",
  "5535": " envious",
  "5536": " First",
  "5537": " wrath",
  "5538": " lizard",
  "5539": " wip",
  "5540": " police",
  "5541": " jung",
  "5542": " tricks",
  "5543": " jolly",
  "5544": " crit",
  "5545": " remedies",
  "5546": " Ïá¿Ï",
  "5547": " á¼Î½",
  "5548": " doors",
  "5549": "iis",
  "5550": " Cf",
  "5551": "agement",
  "5552": "annibal",
  "5553": " banana",
  "5554": " importance",
  "5555": "ends",
  "5556": "ba",
  "5557": " pipe",
  "5558": " cure",
  "5559": " direction",
  "5560": " improve",
  "5561": ";--",
  "5562": " chap",
  "5563": " mailbox",
  "5564": " umbre",
  "5565": " committed",
  "5566": "Chapter",
  "5567": " spotted",
  "5568": " charming",
  "5569": " rising",
  "5570": " 49",
  "5571": " lament",
  "5572": " jungle",
  "5573": " acknow",
  "5574": " seal",
  "5575": " Carth",
  "5576": " cryst",
  "5577": " endure",
  "5578": " avail",
  "5579": " frequently",
  "5580": " load",
  "5581": " zip",
  "5582": "RA",
  "5583": " bend",
  "5584": "Jim",
  "5585": " sighed",
  "5586": "do",
  "5587": " TO",
  "5588": " Alc",
  "5589": "iano",
  "5590": " manifest",
  "5591": " pole",
  "5592": " hung",
  "5593": "ounce",
  "5594": "innÃ¦us",
  "5595": " praet",
  "5596": " impat",
  "5597": " prosper",
  "5598": " ix",
  "5599": " excess",
  "5600": " towns",
  "5601": "ture",
  "5602": " quidem",
  "5603": " prayer",
  "5604": " wrapped",
  "5605": " tyrant",
  "5606": "umn",
  "5607": " bean",
  "5608": "oric",
  "5609": " correct",
  "5610": " Upon",
  "5611": " harder",
  "5612": "uries",
  "5613": " sic",
  "5614": " triangle",
  "5615": " finds",
  "5616": " aband",
  "5617": " male",
  "5618": " Met",
  "5619": " sunflower",
  "5620": " stove",
  "5621": " beings",
  "5622": " bond",
  "5623": " thoughtful",
  "5624": " pup",
  "5625": " terror",
  "5626": " patter",
  "5627": " married",
  "5628": " fridge",
  "5629": "Ã¦t",
  "5630": " alex",
  "5631": " blame",
  "5632": " athens",
  "5633": " mask",
  "5634": " diam",
  "5635": " succeeded",
  "5636": " armed",
  "5637": "enny",
  "5638": "rab",
  "5639": "uer",
  "5640": " persuaded",
  "5641": " contest",
  "5642": " graceful",
  "5643": " Te",
  "5644": " treas",
  "5645": " disord",
  "5646": "action",
  "5647": " qualities",
  "5648": " elements",
  "5649": " aer",
  "5650": "Mum",
  "5651": " presents",
  "5652": " parrot",
  "5653": " kissed",
  "5654": " amongst",
  "5655": " ornament",
  "5656": " Hipp",
  "5657": " somewhat",
  "5658": " remarks",
  "5659": " trunk",
  "5660": " driving",
  "5661": "cl",
  "5662": " kne",
  "5663": " thief",
  "5664": "IV",
  "5665": " Apollo",
  "5666": "03",
  "5667": " restore",
  "5668": "fty",
  "5669": " suggested",
  "5670": " Besides",
  "5671": " preserved",
  "5672": " caterpillar",
  "5673": "acing",
  "5674": " lips",
  "5675": " Would",
  "5676": " restored",
  "5677": " Num",
  "5678": " ego",
  "5679": " alike",
  "5680": " hurry",
  "5681": " Church",
  "5682": " oak",
  "5683": " endeavour",
  "5684": " harmless",
  "5685": " drop",
  "5686": " valu",
  "5687": " enthus",
  "5688": " hurts",
  "5689": " rage",
  "5690": "omach",
  "5691": " rot",
  "5692": "arest",
  "5693": "ology",
  "5694": " rivers",
  "5695": " infantry",
  "5696": "Inside",
  "5697": " splend",
  "5698": " impressive",
  "5699": " Jupiter",
  "5700": "uls",
  "5701": " deem",
  "5702": "ram",
  "5703": " jeep",
  "5704": " Master",
  "5705": " carrots",
  "5706": " ours",
  "5707": " Afric",
  "5708": " bedroom",
  "5709": "11",
  "5710": " throughout",
  "5711": " rh",
  "5712": " emperor",
  "5713": " Man",
  "5714": " Îµá¼°",
  "5715": " helps",
  "5716": " hammer",
  "5717": " compar",
  "5718": " popcorn",
  "5719": "road",
  "5720": " Athenian",
  "5721": " sav",
  "5722": " sleeping",
  "5723": " slight",
  "5724": "azz",
  "5725": " Ïá½´Î½",
  "5726": " vii",
  "5727": " citizen",
  "5728": "EL",
  "5729": " intelligible",
  "5730": " Quint",
  "5731": " disappointed",
  "5732": " gor",
  "5733": " evening",
  "5734": " unable",
  "5735": " quit",
  "5736": " pencil",
  "5737": " dism",
  "5738": " umbrella",
  "5739": " require",
  "5740": "elsus",
  "5741": " apost",
  "5742": "Sorry",
  "5743": " crocodile",
  "5744": " pursuit",
  "5745": " righteous",
  "5746": " surely",
  "5747": " engine",
  "5748": "Î·Î½",
  "5749": " Sammy",
  "5750": " athenians",
  "5751": " wretched",
  "5752": " Cap",
  "5753": "inky",
  "5754": "actus",
  "5755": " stated",
  "5756": " continue",
  "5757": " plato",
  "5758": "ui",
  "5759": " contempl",
  "5760": " settled",
  "5761": " lights",
  "5762": " vic",
  "5763": " remarkable",
  "5764": "All",
  "5765": " pine",
  "5766": "rians",
  "5767": " ended",
  "5768": " withd",
  "5769": " demon",
  "5770": " pasta",
  "5771": " greek",
  "5772": " admin",
  "5773": " east",
  "5774": " twig",
  "5775": " doctrine",
  "5776": "iation",
  "5777": " admitted",
  "5778": " republic",
  "5779": "berries",
  "5780": " peanut",
  "5781": "ounded",
  "5782": " restless",
  "5783": "char",
  "5784": " spect",
  "5785": " expected",
  "5786": "xes",
  "5787": "rance",
  "5788": "laimed",
  "5789": " heavens",
  "5790": " servants",
  "5791": " Oh",
  "5792": "isher",
  "5793": " division",
  "5794": " metal",
  "5795": "itat",
  "5796": "inent",
  "5797": " larger",
  "5798": " knight",
  "5799": " reasons",
  "5800": " safely",
  "5801": " concl",
  "5802": " raced",
  "5803": " Caius",
  "5804": " belt",
  "5805": " wars",
  "5806": " trial",
  "5807": "book",
  "5808": " mush",
  "5809": "ctor",
  "5810": " inse",
  "5811": "uter",
  "5812": " principal",
  "5813": " Re",
  "5814": " mushroom",
  "5815": " conquered",
  "5816": "asses",
  "5817": " teaching",
  "5818": " reven",
  "5819": " composed",
  "5820": "cent",
  "5821": " locked",
  "5822": " Hence",
  "5823": " acce",
  "5824": " required",
  "5825": " aunt",
  "5826": "Â·",
  "5827": "ÎµÎ¹Î½",
  "5828": " perish",
  "5829": "These",
  "5830": " subs",
  "5831": " sir",
  "5832": " ens",
  "5833": "iege",
  "5834": " cups",
  "5835": "imon",
  "5836": " crayon",
  "5837": " crystal",
  "5838": " ancest",
  "5839": " report",
  "5840": " setting",
  "5841": " tunn",
  "5842": " ast",
  "5843": " observ",
  "5844": " consist",
  "5845": " unhappy",
  "5846": " picks",
  "5847": " playful",
  "5848": "ov",
  "5849": " distrib",
  "5850": " female",
  "5851": " attic",
  "5852": " collected",
  "5853": " attain",
  "5854": " priests",
  "5855": " accomp",
  "5856": " crawled",
  "5857": " Soph",
  "5858": " ment",
  "5859": " grapes",
  "5860": "ws",
  "5861": " disposition",
  "5862": " apply",
  "5863": " trad",
  "5864": " hills",
  "5865": " happening",
  "5866": " IN",
  "5867": " evident",
  "5868": " stomach",
  "5869": " dependable",
  "5870": " signs",
  "5871": "utions",
  "5872": "ties",
  "5873": " attached",
  "5874": " conclus",
  "5875": " north",
  "5876": " nav",
  "5877": " pear",
  "5878": " represent",
  "5879": "OL",
  "5880": " toast",
  "5881": " ÏÎ¿",
  "5882": " provinc",
  "5883": " summ",
  "5884": " partly",
  "5885": " suspic",
  "5886": " envel",
  "5887": " hes",
  "5888": " captain",
  "5889": " Min",
  "5890": " En",
  "5891": " yourselves",
  "5892": " flies",
  "5893": "Go",
  "5894": " Troj",
  "5895": " reliable",
  "5896": " garage",
  "5897": " summon",
  "5898": "yre",
  "5899": " Asia",
  "5900": " double",
  "5901": " ped",
  "5902": " May",
  "5903": " introduced",
  "5904": " rubbed",
  "5905": "gen",
  "5906": " ge",
  "5907": "IL",
  "5908": "icop",
  "5909": "teen",
  "5910": " veil",
  "5911": "ogue",
  "5912": " melon",
  "5913": "llip",
  "5914": "elopon",
  "5915": " chamber",
  "5916": " burning",
  "5917": " performed",
  "5918": " Peter",
  "5919": " settle",
  "5920": " staff",
  "5921": " impatient",
  "5922": "amb",
  "5923": " older",
  "5924": " woe",
  "5925": " wheels",
  "5926": " disag",
  "5927": " Paul",
  "5928": " tank",
  "5929": " shells",
  "5930": " west",
  "5931": " Father",
  "5932": " disease",
  "5933": " Look",
  "5934": " tomb",
  "5935": " served",
  "5936": " exhib",
  "5937": " provide",
  "5938": " infl",
  "5939": "then",
  "5940": " betray",
  "5941": " restr",
  "5942": " barbarians",
  "5943": " altar",
  "5944": "rison",
  "5945": " urged",
  "5946": " foe",
  "5947": " expedition",
  "5948": " bef",
  "5949": " Aristotle",
  "5950": " dolphin",
  "5951": " actual",
  "5952": " La",
  "5953": "icle",
  "5954": "alem",
  "5955": " rod",
  "5956": " weather",
  "5957": " Int",
  "5958": " writings",
  "5959": " exile",
  "5960": " examine",
  "5961": "hel",
  "5962": "oto",
  "5963": " valuable",
  "5964": " oct",
  "5965": " perceived",
  "5966": " messen",
  "5967": " calam",
  "5968": " slept",
  "5969": "ÏÏÎ½",
  "5970": " Lucius",
  "5971": " whilst",
  "5972": "tism",
  "5973": " haste",
  "5974": " club",
  "5975": " piano",
  "5976": " reb",
  "5977": " Have",
  "5978": " violent",
  "5979": " species",
  "5980": "ainted",
  "5981": " ward",
  "5982": " behave",
  "5983": " limbs",
  "5984": "yrr",
  "5985": " sentence",
  "5986": "ophon",
  "5987": " Î²",
  "5988": " edge",
  "5989": " provided",
  "5990": "cream",
  "5991": " informed",
  "5992": " Ïá½°",
  "5993": " managed",
  "5994": " hopping",
  "5995": " muff",
  "5996": " images",
  "5997": " Well",
  "5998": " waff",
  "5999": " senses",
  "6000": " greeks",
  "6001": "opl",
  "6002": " colle",
  "6003": "With",
  "6004": " credit",
  "6005": " tot",
  "6006": " proceeded",
  "6007": " sacrifices",
  "6008": "Timmy",
  "6009": " pigeon",
  "6010": " Pat",
  "6011": " recover",
  "6012": " squash",
  "6013": " shrink",
  "6014": " barber",
  "6015": " tut",
  "6016": " 50",
  "6017": " Î¼á½²Î½",
  "6018": "line",
  "6019": " beetle",
  "6020": "ibiades",
  "6021": " candle",
  "6022": " rush",
  "6023": "fortable",
  "6024": " unb",
  "6025": " cub",
  "6026": " Its",
  "6027": " nihil",
  "6028": "upon",
  "6029": " movie",
  "6030": " servant",
  "6031": " rites",
  "6032": " loudly",
  "6033": "time",
  "6034": " uncomfortable",
  "6035": "otes",
  "6036": " distinction",
  "6037": "á¿·",
  "6038": " tamen",
  "6039": " crossed",
  "6040": " quantity",
  "6041": " gifted",
  "6042": " deny",
  "6043": " Next",
  "6044": "ply",
  "6045": " maj",
  "6046": " ignorance",
  "6047": " desert",
  "6048": "Î¼Î­Î½",
  "6049": " Wherefore",
  "6050": " perpet",
  "6051": " crowd",
  "6052": " á¼Ï",
  "6053": " pants",
  "6054": " coins",
  "6055": " Mag",
  "6056": " cush",
  "6057": " wounds",
  "6058": " prepare",
  "6059": "urus",
  "6060": " taxi",
  "6061": " Î½",
  "6062": "zen",
  "6063": " diamond",
  "6064": "ros",
  "6065": "cing",
  "6066": " victim",
  "6067": " regarded",
  "6068": " prud",
  "6069": "cher",
  "6070": "Molly",
  "6071": " silent",
  "6072": "ements",
  "6073": " arguments",
  "6074": " accordingly",
  "6075": " helicop",
  "6076": " collar",
  "6077": "iochus",
  "6078": " prayers",
  "6079": "weet",
  "6080": " subd",
  "6081": " becoming",
  "6082": " strike",
  "6083": "llipop",
  "6084": " lollipop",
  "6085": "ounds",
  "6086": "OOK",
  "6087": " eventually",
  "6088": " faithful",
  "6089": " leader",
  "6090": " ration",
  "6091": "REE",
  "6092": " max",
  "6093": "orp",
  "6094": " severe",
  "6095": " ||",
  "6096": " amid",
  "6097": " opposed",
  "6098": " knot",
  "6099": " intellect",
  "6100": " ages",
  "6101": "arts",
  "6102": " pub",
  "6103": " oracle",
  "6104": " evils",
  "6105": " whispered",
  "6106": " tremb",
  "6107": " bones",
  "6108": " á¼Î½",
  "6109": "inate",
  "6110": " anchor",
  "6111": " confidence",
  "6112": " thro",
  "6113": " tag",
  "6114": " sunt",
  "6115": " camera",
  "6116": " fears",
  "6117": "12",
  "6118": " invol",
  "6119": " Shall",
  "6120": " Pliny",
  "6121": "arus",
  "6122": " compelled",
  "6123": " narrow",
  "6124": "gr",
  "6125": " proposed",
  "6126": "rehens",
  "6127": " Accordingly",
  "6128": " drinking",
  "6129": " attractive",
  "6130": " bracelet",
  "6131": "iberius",
  "6132": " á½",
  "6133": " histor",
  "6134": " dil",
  "6135": " wives",
  "6136": " Latin",
  "6137": " á½Ï",
  "6138": " á¼¡",
  "6139": " comet",
  "6140": "ification",
  "6141": " sorts",
  "6142": " fab",
  "6143": " essence",
  "6144": " Jenny",
  "6145": " cultiv",
  "6146": " practiced",
  "6147": " Scipio",
  "6148": " mop",
  "6149": "lymp",
  "6150": " turning",
  "6151": " Other",
  "6152": " source",
  "6153": " intended",
  "6154": " lively",
  "6155": " months",
  "6156": " south",
  "6157": "join",
  "6158": " Brutus",
  "6159": " ruler",
  "6160": " pointing",
  "6161": " hanging",
  "6162": " confusion",
  "6163": " Bet",
  "6164": " rolling",
  "6165": " pleasant",
  "6166": " shelter",
  "6167": " helicopter",
  "6168": " Nay",
  "6169": " baptism",
  "6170": "á½ºÏ",
  "6171": " members",
  "6172": " armies",
  "6173": " pilot",
  "6174": " aeropl",
  "6175": " honourable",
  "6176": " religion",
  "6177": " san",
  "6178": " raft",
  "6179": " Sed",
  "6180": " bare",
  "6181": " magnet",
  "6182": " strangers",
  "6183": " separated",
  "6184": " rice",
  "6185": " tap",
  "6186": "rences",
  "6187": " Del",
  "6188": " sust",
  "6189": " spun",
  "6190": "stand",
  "6191": " fluffy",
  "6192": " wont",
  "6193": " suffering",
  "6194": " properly",
  "6195": " ago",
  "6196": " tibi",
  "6197": " delighted",
  "6198": " rhet",
  "6199": " fork",
  "6200": " chast",
  "6201": " wanting",
  "6202": " persistent",
  "6203": "OM",
  "6204": " louder",
  "6205": " belief",
  "6206": "urd",
  "6207": " licked",
  "6208": " volcan",
  "6209": "opus",
  "6210": " thither",
  "6211": " trop",
  "6212": " acted",
  "6213": " Î¿á¼",
  "6214": " attach",
  "6215": " cereal",
  "6216": "ley",
  "6217": " forty",
  "6218": " domin",
  "6219": " council",
  "6220": " wholly",
  "6221": " Gr",
  "6222": " radio",
  "6223": " supreme",
  "6224": " fulf",
  "6225": " seas",
  "6226": " refuse",
  "6227": " capable",
  "6228": " flashlight",
  "6229": " Give",
  "6230": " curtain",
  "6231": "á½¸Î½",
  "6232": " advance",
  "6233": " mug",
  "6234": "Mama",
  "6235": "stem",
  "6236": " movement",
  "6237": " tale",
  "6238": " rendered",
  "6239": " theirs",
  "6240": "Î¿ÏÏ",
  "6241": " leading",
  "6242": " Persians",
  "6243": " throne",
  "6244": " disappeared",
  "6245": "oral",
  "6246": " Ï",
  "6247": " oy",
  "6248": " Sus",
  "6249": " treated",
  "6250": "bble",
  "6251": " hook",
  "6252": " library",
  "6253": " infinite",
  "6254": " Ã¦",
  "6255": " avoc",
  "6256": " split",
  "6257": " bub",
  "6258": " cease",
  "6259": " fet",
  "6260": " jacket",
  "6261": " scoot",
  "6262": " pity",
  "6263": " confer",
  "6264": "edy",
  "6265": "ubby",
  "6266": " novel",
  "6267": "dge",
  "6268": "dys",
  "6269": " onion",
  "6270": "cribed",
  "6271": "aghet",
  "6272": " actually",
  "6273": "aghetti",
  "6274": "inde",
  "6275": "osthenes",
  "6276": "ania",
  "6277": "mbol",
  "6278": "opard",
  "6279": "thus",
  "6280": " alert",
  "6281": " attacked",
  "6282": " cactus",
  "6283": " lib",
  "6284": " boxes",
  "6285": " purse",
  "6286": " Syr",
  "6287": " screen",
  "6288": "oint",
  "6289": " generation",
  "6290": " Ulysses",
  "6291": " highly",
  "6292": " riches",
  "6293": " Corinth",
  "6294": "Re",
  "6295": "TH",
  "6296": " yogurt",
  "6297": " cooked",
  "6298": " Jul",
  "6299": " autem",
  "6300": " heavenly",
  "6301": "Jane",
  "6302": "form",
  "6303": " People",
  "6304": " suggest",
  "6305": "esp",
  "6306": " trap",
  "6307": "che",
  "6308": "keep",
  "6309": "iated",
  "6310": "urip",
  "6311": " spirits",
  "6312": " luxury",
  "6313": " chariot",
  "6314": " coco",
  "6315": " discussion",
  "6316": " olive",
  "6317": " caus",
  "6318": " tire",
  "6319": " tube",
  "6320": " twice",
  "6321": "ically",
  "6322": " plunder",
  "6323": " spaghetti",
  "6324": " nicely",
  "6325": " Ah",
  "6326": " symbol",
  "6327": "izing",
  "6328": " Did",
  "6329": "umbled",
  "6330": " parade",
  "6331": " ips",
  "6332": " condemned",
  "6333": "15",
  "6334": " prepar",
  "6335": " pebble",
  "6336": "ccoli",
  "6337": " bicy",
  "6338": " cell",
  "6339": "ifl",
  "6340": "you",
  "6341": "Î·Ï",
  "6342": " caul",
  "6343": " burnt",
  "6344": " Jesus",
  "6345": "ino",
  "6346": " computer",
  "6347": "ney",
  "6348": " cocoa",
  "6349": "inct",
  "6350": " imagined",
  "6351": " uncertain",
  "6352": " vall",
  "6353": " earnest",
  "6354": "alled",
  "6355": " indign",
  "6356": " siege",
  "6357": "licted",
  "6358": " counting",
  "6359": "TION",
  "6360": " carpet",
  "6361": " ridic",
  "6362": " judges",
  "6363": " turkey",
  "6364": " glove",
  "6365": " tunnel",
  "6366": " sheet",
  "6367": " enjoying",
  "6368": " Good",
  "6369": " invest",
  "6370": "Bobo",
  "6371": "orous",
  "6372": " admired",
  "6373": " orator",
  "6374": "fect",
  "6375": " trophy",
  "6376": " closely",
  "6377": " stirred",
  "6378": " peach",
  "6379": " education",
  "6380": " compassionate",
  "6381": "iform",
  "6382": "Give",
  "6383": " tool",
  "6384": " learnt",
  "6385": " moreover",
  "6386": "erusalem",
  "6387": "fast",
  "6388": "ashing",
  "6389": "acity",
  "6390": " saus",
  "6391": " spinning",
  "6392": "cked",
  "6393": " stretched",
  "6394": " bapt",
  "6395": " bade",
  "6396": " consideration",
  "6397": "rys",
  "6398": " asser",
  "6399": " Pyth",
  "6400": " pitch",
  "6401": " grows",
  "6402": "ani",
  "6403": " lime",
  "6404": " chubby",
  "6405": " shrimp",
  "6406": " soar",
  "6407": " statement",
  "6408": " consulship",
  "6409": " aeroplane",
  "6410": " system",
  "6411": " skull",
  "6412": " chalk",
  "6413": " hatred",
  "6414": "night",
  "6415": " dischar",
  "6416": " rescue",
  "6417": " video",
  "6418": " receiving",
  "6419": " needle",
  "6420": " handle",
  "6421": "ivity",
  "6422": " instruct",
  "6423": "father",
  "6424": "som",
  "6425": " contained",
  "6426": " volunt",
  "6427": " distress",
  "6428": " honours",
  "6429": " slaughter",
  "6430": " refr",
  "6431": " State",
  "6432": "sing",
  "6433": "asc",
  "6434": " injury",
  "6435": "usted",
  "6436": " Art",
  "6437": " Î¿á½",
  "6438": " related",
  "6439": "uge",
  "6440": " propos",
  "6441": "Ã¢",
  "6442": " steel",
  "6443": " familiar",
  "6444": " rushed",
  "6445": " Thr",
  "6446": " Jake",
  "6447": "atched",
  "6448": " defeated",
  "6449": " broccoli",
  "6450": " political",
  "6451": " desk",
  "6452": "body",
  "6453": " shed",
  "6454": "nal",
  "6455": " lofty",
  "6456": " radish",
  "6457": " 52",
  "6458": " caulifl",
  "6459": "EC",
  "6460": " hospital",
  "6461": "acht",
  "6462": " hairc",
  "6463": " Book",
  "6464": "ulu",
  "6465": "essie",
  "6466": " volcano",
  "6467": "inum",
  "6468": "13",
  "6469": " talents",
  "6470": " reverse",
  "6471": " happier",
  "6472": " conversation",
  "6473": " Today",
  "6474": " polish",
  "6475": " butt",
  "6476": "alf",
  "6477": " harmony",
  "6478": " mos",
  "6479": " á¼Îº",
  "6480": " achie",
  "6481": " haircut",
  "6482": " bury",
  "6483": " nevertheless",
  "6484": " utterly",
  "6485": " affected",
  "6486": "ryg",
  "6487": " variety",
  "6488": " slid",
  "6489": " Achilles",
  "6490": " Pipp",
  "6491": " unite",
  "6492": " vit",
  "6493": " pron",
  "6494": " wiped",
  "6495": "rm",
  "6496": "avid",
  "6497": "alend",
  "6498": " laughs",
  "6499": " legis",
  "6500": " bubble",
  "6501": " sna",
  "6502": " envelope",
  "6503": " Sto",
  "6504": " abroad",
  "6505": " Emily",
  "6506": " leopard",
  "6507": " rightly",
  "6508": " concerned",
  "6509": " passages",
  "6510": " eraser",
  "6511": " insect",
  "6512": " Moreover",
  "6513": " OK",
  "6514": " barrel",
  "6515": " Hercules",
  "6516": "anda",
  "6517": " religious",
  "6518": " usually",
  "6519": "ering",
  "6520": "otus",
  "6521": " pair",
  "6522": " competitive",
  "6523": " officers",
  "6524": " possibly",
  "6525": " ÏÎ±Ï",
  "6526": " muse",
  "6527": " dedic",
  "6528": " bushes",
  "6529": " cushion",
  "6530": "aker",
  "6531": " cauliflower",
  "6532": " ot",
  "6533": " permit",
  "6534": " thereby",
  "6535": " madness",
  "6536": " lend",
  "6537": " anywhere",
  "6538": " tribes",
  "6539": " valley",
  "6540": " slay",
  "6541": "Î¬Î½",
  "6542": "ibility",
  "6543": " retain",
  "6544": " miser",
  "6545": " itch",
  "6546": " goods",
  "6547": " weigh",
  "6548": "uv",
  "6549": " neque",
  "6550": " scarcely",
  "6551": " envy",
  "6552": " parties",
  "6553": "izes",
  "6554": " Vol",
  "6555": " forbid",
  "6556": "osity",
  "6557": " circumstance",
  "6558": " perceive",
  "6559": "mnon",
  "6560": " throwing",
  "6561": " satisfied",
  "6562": "how",
  "6563": " beside",
  "6564": " wallet",
  "6565": " nost",
  "6566": " violin",
  "6567": " listening",
  "6568": " crawl",
  "6569": " magistrates",
  "6570": " weapon",
  "6571": " bon",
  "6572": " adopted",
  "6573": " yacht",
  "6574": "ÎµÏ",
  "6575": "Î¿Î¹Ï",
  "6576": "rors",
  "6577": "iture",
  "6578": " glowing",
  "6579": " dissol",
  "6580": " tribune",
  "6581": " scattered",
  "6582": " motorcy",
  "6583": " perfectly",
  "6584": " acting",
  "6585": " Great",
  "6586": " eaten",
  "6587": " Like",
  "6588": "rious",
  "6589": " garm",
  "6590": " toil",
  "6591": "aky",
  "6592": " powder",
  "6593": " excit",
  "6594": " penny",
  "6595": " vice",
  "6596": " opens",
  "6597": " convey",
  "6598": " shouts",
  "6599": " ink",
  "6600": "14",
  "6601": " struggle",
  "6602": " differ",
  "6603": "ounced",
  "6604": " Fab",
  "6605": "ffe",
  "6606": " veter",
  "6607": " Both",
  "6608": " trade",
  "6609": " scrat",
  "6610": " extrem",
  "6611": "~~",
  "6612": " solemn",
  "6613": "igator",
  "6614": "ini",
  "6615": " pretending",
  "6616": " Though",
  "6617": "zzy",
  "6618": " overcome",
  "6619": " scooter",
  "6620": " contains",
  "6621": " reduced",
  "6622": " Was",
  "6623": " Since",
  "6624": " legisl",
  "6625": " bicycle",
  "6626": " Se",
  "6627": "acher",
  "6628": " dic",
  "6629": " handed",
  "6630": " hunter",
  "6631": "Fl",
  "6632": " fisher",
  "6633": "iments",
  "6634": " adorable",
  "6635": " absurd",
  "6636": "pher",
  "6637": "Sarah",
  "6638": " philosoph",
  "6639": "racy",
  "6640": " pony",
  "6641": " instit",
  "6642": " cleaning",
  "6643": " cattle",
  "6644": "con",
  "6645": " distr",
  "6646": " arise",
  "6647": " favourite",
  "6648": "itious",
  "6649": " fond",
  "6650": " tray",
  "6651": " sniff",
  "6652": " bags",
  "6653": "vest",
  "6654": " younger",
  "6655": "avi",
  "6656": " extent",
  "6657": "inks",
  "6658": " repeat",
  "6659": " /",
  "6660": " uniform",
  "6661": " presented",
  "6662": "ials",
  "6663": " model",
  "6664": " energy",
  "6665": " bulb",
  "6666": " coal",
  "6667": " bin",
  "6668": "Î¹Î½",
  "6669": "ora",
  "6670": "gers",
  "6671": "allen",
  "6672": " justly",
  "6673": " insp",
  "6674": " relations",
  "6675": " facts",
  "6676": " celery",
  "6677": " dive",
  "6678": " nay",
  "6679": " Little",
  "6680": " meadow",
  "6681": "held",
  "6682": " plot",
  "6683": "oices",
  "6684": " dial",
  "6685": "unate",
  "6686": " pengu",
  "6687": " lover",
  "6688": "iastic",
  "6689": " wickedness",
  "6690": " description",
  "6691": " Lib",
  "6692": "tes",
  "6693": " preserve",
  "6694": " repeated",
  "6695": "respond",
  "6696": " biggest",
  "6697": " cricket",
  "6698": "aris",
  "6699": " passions",
  "6700": " rhy",
  "6701": " measures",
  "6702": " contempt",
  "6703": "ilo",
  "6704": " contri",
  "6705": "ounted",
  "6706": "iring",
  "6707": " ease",
  "6708": "ively",
  "6709": "archus",
  "6710": " obliged",
  "6711": " democ",
  "6712": " dishon",
  "6713": " utmost",
  "6714": " produces",
  "6715": " demonstr",
  "6716": " surrounded",
  "6717": " grie",
  "6718": "amemnon",
  "6719": " ming",
  "6720": " bandage",
  "6721": "lt",
  "6722": " Ïá½¸Î½",
  "6723": " iam",
  "6724": "uals",
  "6725": " cob",
  "6726": " Mum",
  "6727": " invite",
  "6728": "ING",
  "6729": " &",
  "6730": " motorcycle",
  "6731": " arch",
  "6732": " Cons",
  "6733": " bounced",
  "6734": " nail",
  "6735": "tolemy",
  "6736": "eros",
  "6737": "UM",
  "6738": " guilt",
  "6739": " accused",
  "6740": " holes",
  "6741": "aed",
  "6742": " German",
  "6743": "ye",
  "6744": " remaining",
  "6745": " Lacedaemonians",
  "6746": " Yes",
  "6747": " weapons",
  "6748": " steak",
  "6749": " ambul",
  "6750": "iph",
  "6751": " constitution",
  "6752": " App",
  "6753": " advers",
  "6754": " nine",
  "6755": " hedge",
  "6756": " authors",
  "6757": " argue",
  "6758": "chair",
  "6759": " Son",
  "6760": " screw",
  "6761": "worthy",
  "6762": " skipped",
  "6763": " accompan",
  "6764": " diary",
  "6765": " regret",
  "6766": "ai",
  "6767": " Scy",
  "6768": "16",
  "6769": " resp",
  "6770": " poster",
  "6771": " panic",
  "6772": " moves",
  "6773": " enthusiastic",
  "6774": " Sicily",
  "6775": "utarch",
  "6776": "born",
  "6777": " avocado",
  "6778": " bump",
  "6779": " eloquence",
  "6780": " pur",
  "6781": "tr",
  "6782": " Buzz",
  "6783": ":-",
  "6784": "uripides",
  "6785": "isible",
  "6786": " page",
  "6787": " correspond",
  "6788": " tick",
  "6789": " axe",
  "6790": " forgotten",
  "6791": "amm",
  "6792": " journal",
  "6793": " vend",
  "6794": " litter",
  "6795": "ral",
  "6796": "aging",
  "6797": " unlock",
  "6798": "ability",
  "6799": "amus",
  "6800": "eloponnes",
  "6801": " decorate",
  "6802": " loose",
  "6803": "adel",
  "6804": " intention",
  "6805": "erm",
  "6806": "house",
  "6807": " elevator",
  "6808": "omin",
  "6809": " misch",
  "6810": " riding",
  "6811": " grave",
  "6812": " Having",
  "6813": " Before",
  "6814": " bathe",
  "6815": "Cf",
  "6816": " aware",
  "6817": " tools",
  "6818": " pirate",
  "6819": " changes",
  "6820": " injust",
  "6821": " ske",
  "6822": " luc",
  "6823": " broad",
  "6824": " goal",
  "6825": " commander",
  "6826": " wire",
  "6827": " skip",
  "6828": " accepted",
  "6829": " armchair",
  "6830": " renown",
  "6831": " bearing",
  "6832": " loop",
  "6833": " flames",
  "6834": " desirous",
  "6835": " El",
  "6836": " hive",
  "6837": " buttons",
  "6838": " alligator",
  "6839": "lance",
  "6840": "rection",
  "6841": " sailor",
  "6842": "nus",
  "6843": "arry",
  "6844": "oby",
  "6845": " recommend",
  "6846": " Poppy",
  "6847": " occupied",
  "6848": " counter",
  "6849": " investig",
  "6850": " namely",
  "6851": " jellyfish",
  "6852": " Sat",
  "6853": " wed",
  "6854": " Val",
  "6855": " matt",
  "6856": " assoc",
  "6857": " sweater",
  "6858": " Xen",
  "6859": " frequent",
  "6860": " uses",
  "6861": " notebook",
  "6862": " ancients",
  "6863": " sufficiently",
  "6864": "hand",
  "6865": " oyster",
  "6866": "anas",
  "6867": " consent",
  "6868": "rep",
  "6869": " sins",
  "6870": " earlier",
  "6871": " pred",
  "6872": " deliber",
  "6873": " gir",
  "6874": " assigned",
  "6875": "Tr",
  "6876": " conven",
  "6877": " receives",
  "6878": "itor",
  "6879": " folder",
  "6880": " solid",
  "6881": "Î»Îµ",
  "6882": " ranks",
  "6883": " Jo",
  "6884": " mixer",
  "6885": " alexander",
  "6886": " blows",
  "6887": "asped",
  "6888": " cupboard",
  "6889": "aughters",
  "6890": "uke",
  "6891": " Lulu",
  "6892": " increased",
  "6893": " tender",
  "6894": "aws",
  "6895": " neat",
  "6896": " mosqu",
  "6897": "racted",
  "6898": " progress",
  "6899": "á¿³",
  "6900": " excitement",
  "6901": " grape",
  "6902": " Nature",
  "6903": " Lyc",
  "6904": " daily",
  "6905": " playground",
  "6906": " reported",
  "6907": " horns",
  "6908": " fully",
  "6909": " aug",
  "6910": " vac",
  "6911": " injustice",
  "6912": " overth",
  "6913": " simply",
  "6914": " beaten",
  "6915": "AS",
  "6916": " alliance",
  "6917": " trucks",
  "6918": " tummy",
  "6919": "atum",
  "6920": " cliff",
  "6921": "ripp",
  "6922": " palm",
  "6923": " region",
  "6924": " ambulance",
  "6925": " indul",
  "6926": " planet",
  "6927": "Billy",
  "6928": "etrius",
  "6929": " contrib",
  "6930": " rear",
  "6931": "ops",
  "6932": " Di",
  "6933": " upper",
  "6934": " ashes",
  "6935": "ÏÎ¹Î½",
  "6936": "ALL",
  "6937": " shoulder",
  "6938": " bodily",
  "6939": " chiefly",
  "6940": " wounded",
  "6941": " Rom",
  "6942": " merit",
  "6943": " packed",
  "6944": " Hy",
  "6945": " calend",
  "6946": " Polly",
  "6947": " slipp",
  "6948": " Birdy",
  "6949": " Meg",
  "6950": " Hannibal",
  "6951": " lions",
  "6952": " offering",
  "6953": " title",
  "6954": "ky",
  "6955": " conclusion",
  "6956": " fed",
  "6957": " innoc",
  "6958": "uno",
  "6959": "iry",
  "6960": " precious",
  "6961": "leton",
  "6962": "ading",
  "6963": " Indeed",
  "6964": " struct",
  "6965": " strawberry",
  "6966": " painter",
  "6967": "lication",
  "6968": " poetry",
  "6969": " genius",
  "6970": " burst",
  "6971": " wrought",
  "6972": " modo",
  "6973": "ode",
  "6974": " impious",
  "6975": " barking",
  "6976": " venge",
  "6977": " figures",
  "6978": "rous",
  "6979": " surface",
  "6980": " mule",
  "6981": " rapid",
  "6982": " brief",
  "6983": "eor",
  "6984": "after",
  "6985": "ancing",
  "6986": " Each",
  "6987": "igence",
  "6988": " herb",
  "6989": " notion",
  "6990": " affections",
  "6991": " football",
  "6992": " greatness",
  "6993": "Îµá¿Î½",
  "6994": " declare",
  "6995": " Â¶",
  "6996": " defin",
  "6997": " exactly",
  "6998": " disposed",
  "6999": " deprived",
  "7000": " consec",
  "7001": " amount",
  "7002": " effects",
  "7003": " agreeable",
  "7004": "icity",
  "7005": "20",
  "7006": " particip",
  "7007": " dried",
  "7008": " pages",
  "7009": " embr",
  "7010": " remedy",
  "7011": "awn",
  "7012": " roots",
  "7013": " drops",
  "7014": " guards",
  "7015": " besie",
  "7016": " shocked",
  "7017": " material",
  "7018": " thor",
  "7019": " veh",
  "7020": " writer",
  "7021": "isi",
  "7022": "ban",
  "7023": " cable",
  "7024": " kay",
  "7025": "hether",
  "7026": " rav",
  "7027": " laught",
  "7028": " tripped",
  "7029": " commons",
  "7030": " conject",
  "7031": " assured",
  "7032": "ena",
  "7033": " masters",
  "7034": " sneeze",
  "7035": " verse",
  "7036": " Thee",
  "7037": " visible",
  "7038": "ads",
  "7039": "ertainly",
  "7040": "enth",
  "7041": "Tis",
  "7042": " mystery",
  "7043": "ÏÎ½",
  "7044": "Î»Î±",
  "7045": " Antonius",
  "7046": "bi",
  "7047": "adem",
  "7048": " divinity",
  "7049": "'ve",
  "7050": " autom",
  "7051": "istol",
  "7052": " costume",
  "7053": " hippo",
  "7054": " cy",
  "7055": " tribe",
  "7056": " probable",
  "7057": " whip",
  "7058": " depth",
  "7059": " arose",
  "7060": " wre",
  "7061": "ingly",
  "7062": "LE",
  "7063": "lest",
  "7064": " prayed",
  "7065": " constant",
  "7066": "itis",
  "7067": "tered",
  "7068": " oh",
  "7069": " raz",
  "7070": " diction",
  "7071": " Heaven",
  "7072": " flea",
  "7073": "ipper",
  "7074": " copper",
  "7075": "ikes",
  "7076": " pattern",
  "7077": " angels",
  "7078": " minutes",
  "7079": " commands",
  "7080": " alle",
  "7081": " stack",
  "7082": " Spirit",
  "7083": " enqu",
  "7084": "keeper",
  "7085": " mode",
  "7086": " chess",
  "7087": "aria",
  "7088": " preferred",
  "7089": "ylus",
  "7090": "istic",
  "7091": " dying",
  "7092": " Pompeius",
  "7093": " circles",
  "7094": " urge",
  "7095": "thern",
  "7096": " maze",
  "7097": "18",
  "7098": " missile",
  "7099": " provinces",
  "7100": " laughter",
  "7101": " octopus",
  "7102": " diff",
  "7103": " mint",
  "7104": " Xx",
  "7105": "Â§",
  "7106": " connected",
  "7107": " mattress",
  "7108": "va",
  "7109": "--,",
  "7110": " dess",
  "7111": "glasses",
  "7112": "alth",
  "7113": " situation",
  "7114": "OS",
  "7115": " Rem",
  "7116": " Î¿á½Î´",
  "7117": "IR",
  "7118": "overy",
  "7119": " worst",
  "7120": " esteemed",
  "7121": " ita",
  "7122": "asions",
  "7123": " burned",
  "7124": " stad",
  "7125": " dreamed",
  "7126": "Soc",
  "7127": " legion",
  "7128": " evidence",
  "7129": " pastry",
  "7130": " Sol",
  "7131": "?\".",
  "7132": " 53",
  "7133": " kayak",
  "7134": " issue",
  "7135": " disorder",
  "7136": " accustom",
  "7137": " aven",
  "7138": " automob",
  "7139": " Sec",
  "7140": " Poly",
  "7141": "son",
  "7142": " concealed",
  "7143": "ÏÎ¹",
  "7144": "nders",
  "7145": " shoulders",
  "7146": " starting",
  "7147": " retired",
  "7148": " xii",
  "7149": " Grec",
  "7150": " drawer",
  "7151": " skeleton",
  "7152": " fer",
  "7153": " ea",
  "7154": " math",
  "7155": " steep",
  "7156": " imit",
  "7157": " ÏÎµ",
  "7158": " goodness",
  "7159": " cobwe",
  "7160": "ieties",
  "7161": " stairs",
  "7162": " Miss",
  "7163": " cows",
  "7164": " guide",
  "7165": " vision",
  "7166": "ifies",
  "7167": " didst",
  "7168": " manners",
  "7169": "Pl",
  "7170": " magaz",
  "7171": " golf",
  "7172": " week",
  "7173": " exposed",
  "7174": " pier",
  "7175": "ilet",
  "7176": " Ã¾ing",
  "7177": " respecting",
  "7178": " reality",
  "7179": " yoga",
  "7180": " warned",
  "7181": " drawings",
  "7182": " asc",
  "7183": "een",
  "7184": " site",
  "7185": "htub",
  "7186": "erer",
  "7187": " tutor",
  "7188": " throws",
  "7189": " Rob",
  "7190": " demanded",
  "7191": " bathtub",
  "7192": "aming",
  "7193": "omb",
  "7194": " Still",
  "7195": " marching",
  "7196": " rate",
  "7197": " imagination",
  "7198": " Rose",
  "7199": " Cass",
  "7200": " sailing",
  "7201": " ribb",
  "7202": "ymph",
  "7203": " quoted",
  "7204": "jected",
  "7205": " phr",
  "7206": " brid",
  "7207": " plays",
  "7208": " available",
  "7209": " Dionys",
  "7210": " Plat",
  "7211": " apparent",
  "7212": " switch",
  "7213": " attended",
  "7214": "pri",
  "7215": " ble",
  "7216": " compared",
  "7217": " moist",
  "7218": " countries",
  "7219": "aet",
  "7220": " garrison",
  "7221": " coward",
  "7222": " begun",
  "7223": " LinnÃ¦us",
  "7224": " sending",
  "7225": " cooking",
  "7226": " Gal",
  "7227": " founded",
  "7228": " statues",
  "7229": " sunglasses",
  "7230": " voy",
  "7231": " ÏÎ¿á¿Ï",
  "7232": " exists",
  "7233": " Red",
  "7234": "arum",
  "7235": " Hector",
  "7236": "thm",
  "7237": "NG",
  "7238": "fa",
  "7239": "no",
  "7240": " expressed",
  "7241": " sensible",
  "7242": " knock",
  "7243": "ta",
  "7244": " shaking",
  "7245": " muffin",
  "7246": " explan",
  "7247": " creation",
  "7248": " minute",
  "7249": " mercy",
  "7250": " planted",
  "7251": " fuel",
  "7252": " personal",
  "7253": "ebra",
  "7254": " file",
  "7255": " IV",
  "7256": " traged",
  "7257": " bestowed",
  "7258": " Nic",
  "7259": ",â",
  "7260": " disappear",
  "7261": " patch",
  "7262": "this",
  "7263": " Cy",
  "7264": "fied",
  "7265": " compare",
  "7266": "AM",
  "7267": "ua",
  "7268": " shower",
  "7269": " ancestors",
  "7270": " caut",
  "7271": "adows",
  "7272": " lack",
  "7273": " doubtful",
  "7274": "iquity",
  "7275": " Hellenes",
  "7276": " saving",
  "7277": " Christian",
  "7278": " Baby",
  "7279": " makeup",
  "7280": " guest",
  "7281": " acquainted",
  "7282": " translation",
  "7283": " telephone",
  "7284": "ili",
  "7285": "ential",
  "7286": "erxes",
  "7287": " sounded",
  "7288": " tide",
  "7289": " worsh",
  "7290": " package",
  "7291": " stops",
  "7292": " waffle",
  "7293": "á¾¶",
  "7294": " film",
  "7295": " minister",
  "7296": " consists",
  "7297": " stern",
  "7298": " leash",
  "7299": "erius",
  "7300": " hut",
  "7301": " islands",
  "7302": " profit",
  "7303": " chim",
  "7304": " ok",
  "7305": " openly",
  "7306": " dared",
  "7307": " absence",
  "7308": " Bac",
  "7309": " vul",
  "7310": " perfume",
  "7311": " element",
  "7312": " Sal",
  "7313": "hor",
  "7314": " opera",
  "7315": "erg",
  "7316": "rupted",
  "7317": "á¿¦",
  "7318": " fury",
  "7319": " illustrious",
  "7320": " leads",
  "7321": "inoc",
  "7322": " Cam",
  "7323": "Î¯Î±Ï",
  "7324": " colours",
  "7325": " weeping",
  "7326": " mosquito",
  "7327": " shone",
  "7328": " sprink",
  "7329": " fog",
  "7330": " considering",
  "7331": "ORUS",
  "7332": "acted",
  "7333": "TIC",
  "7334": " apt",
  "7335": " sore",
  "7336": " addressed",
  "7337": " sigh",
  "7338": " abst",
  "7339": " kindly",
  "7340": "Î¶",
  "7341": " spake",
  "7342": "unct",
  "7343": " referred",
  "7344": " presently",
  "7345": " decision",
  "7346": " treacher",
  "7347": " cooler",
  "7348": "asm",
  "7349": "quid",
  "7350": " persuade",
  "7351": " insol",
  "7352": " owing",
  "7353": " hostile",
  "7354": " Eng",
  "7355": " pursue",
  "7356": " vir",
  "7357": " slides",
  "7358": " clo",
  "7359": "Em",
  "7360": " Call",
  "7361": " poll",
  "7362": " physician",
  "7363": " zebra",
  "7364": " freez",
  "7365": " Being",
  "7366": " marks",
  "7367": " beloved",
  "7368": "aments",
  "7369": " sway",
  "7370": " porch",
  "7371": " trembling",
  "7372": " basketball",
  "7373": " renew",
  "7374": " musician",
  "7375": "19",
  "7376": "Bye",
  "7377": " realised",
  "7378": " fro",
  "7379": " crimes",
  "7380": " nobody",
  "7381": " date",
  "7382": " prey",
  "7383": " laser",
  "7384": " individuals",
  "7385": " arrival",
  "7386": " Tina",
  "7387": " signal",
  "7388": " dessert",
  "7389": "esch",
  "7390": "Jimmy",
  "7391": " picking",
  "7392": " diseases",
  "7393": " Id",
  "7394": " notes",
  "7395": "otion",
  "7396": "eds",
  "7397": "17",
  "7398": "gain",
  "7399": "bans",
  "7400": " daughters",
  "7401": " sausage",
  "7402": "uary",
  "7403": " microphone",
  "7404": "Sh",
  "7405": " hated",
  "7406": " lately",
  "7407": "iously",
  "7408": " Quintus",
  "7409": "oppy",
  "7410": " grill",
  "7411": " disagree",
  "7412": "ugged",
  "7413": " poke",
  "7414": " possesses",
  "7415": " protection",
  "7416": "itute",
  "7417": " swords",
  "7418": " encl",
  "7419": " comprehend",
  "7420": " trail",
  "7421": " introduce",
  "7422": " dictator",
  "7423": "uding",
  "7424": " begins",
  "7425": " stumbled",
  "7426": " companions",
  "7427": " oft",
  "7428": " Ol",
  "7429": "brew",
  "7430": " vendor",
  "7431": " swall",
  "7432": " frogs",
  "7433": "imony",
  "7434": " spots",
  "7435": " Î¸Îµ",
  "7436": " piety",
  "7437": "inous",
  "7438": " passes",
  "7439": " automobile",
  "7440": " Pri",
  "7441": " breaks",
  "7442": " bananas",
  "7443": " prisoners",
  "7444": "tering",
  "7445": "onus",
  "7446": " elephants",
  "7447": " italy",
  "7448": " missing",
  "7449": " gorilla",
  "7450": " folly",
  "7451": " centre",
  "7452": " aliqu",
  "7453": " Rep",
  "7454": " Thess",
  "7455": " giggled",
  "7456": "Ã¼",
  "7457": " affirm",
  "7458": " sport",
  "7459": " encouraged",
  "7460": " trusted",
  "7461": " ends",
  "7462": "ÏÎ¸Î±Î¹",
  "7463": "uting",
  "7464": "scope",
  "7465": " tub",
  "7466": "cast",
  "7467": " AT",
  "7468": "ardon",
  "7469": " hockey",
  "7470": "ilaus",
  "7471": " patric",
  "7472": " adds",
  "7473": " organize",
  "7474": "fold",
  "7475": " families",
  "7476": " district",
  "7477": " seeking",
  "7478": " stable",
  "7479": "ulated",
  "7480": "ellius",
  "7481": " battery",
  "7482": "Jill",
  "7483": " fisherman",
  "7484": "Your",
  "7485": " cane",
  "7486": " Celsus",
  "7487": "washer",
  "7488": " avo",
  "7489": " Pete",
  "7490": "OT",
  "7491": " museum",
  "7492": " fatal",
  "7493": " suggests",
  "7494": "atory",
  "7495": " agreement",
  "7496": " slip",
  "7497": " herald",
  "7498": " ÏÏÎ¿",
  "7499": "tles",
  "7500": " necessarily",
  "7501": "emus",
  "7502": " hoping",
  "7503": " hotel",
  "7504": " conceal",
  "7505": " warri",
  "7506": " medal",
  "7507": " virgin",
  "7508": "mes",
  "7509": " Hist",
  "7510": " interests",
  "7511": "oms",
  "7512": " photo",
  "7513": "irmed",
  "7514": " Carthagin",
  "7515": " taller",
  "7516": " instances",
  "7517": " napkin",
  "7518": " troubles",
  "7519": " boast",
  "7520": "rench",
  "7521": " wardrobe",
  "7522": " vengeance",
  "7523": " prÃ¦t",
  "7524": " â",
  "7525": " drain",
  "7526": "case",
  "7527": " grandpa",
  "7528": " citadel",
  "7529": " MSS",
  "7530": " Egyptians",
  "7531": " mitten",
  "7532": " structure",
  "7533": " Everywhere",
  "7534": " earthqu",
  "7535": "itas",
  "7536": " pistol",
  "7537": " quarters",
  "7538": "\",",
  "7539": " dishwasher",
  "7540": " baseball",
  "7541": "eks",
  "7542": "cellus",
  "7543": " purposes",
  "7544": " unwill",
  "7545": "ittens",
  "7546": " savage",
  "7547": "verty",
  "7548": " Lys",
  "7549": " poverty",
  "7550": "ole",
  "7551": " properties",
  "7552": " Div",
  "7553": "alty",
  "7554": " trash",
  "7555": " climbing",
  "7556": " strict",
  "7557": " fireman",
  "7558": " Pub",
  "7559": " toward",
  "7560": "IES",
  "7561": " mall",
  "7562": " ticket",
  "7563": " passport",
  "7564": "aper",
  "7565": " Fr",
  "7566": " elect",
  "7567": " lotion",
  "7568": " mistress",
  "7569": " duties",
  "7570": " services",
  "7571": "ension",
  "7572": " funeral",
  "7573": " Pippin",
  "7574": "when",
  "7575": " Jud",
  "7576": " chimney",
  "7577": "orem",
  "7578": " fauc",
  "7579": " reminded",
  "7580": " perished",
  "7581": " brain",
  "7582": " admiration",
  "7583": " dismiss",
  "7584": "ENT",
  "7585": " surv",
  "7586": "vation",
  "7587": " steed",
  "7588": " provisions",
  "7589": " permitted",
  "7590": " completed",
  "7591": " furniture",
  "7592": "Ah",
  "7593": " sandbox",
  "7594": " boots",
  "7595": " license",
  "7596": "course",
  "7597": "ucing",
  "7598": "loo",
  "7599": "oseph",
  "7600": "iousness",
  "7601": " bestow",
  "7602": "ETTER",
  "7603": " epist",
  "7604": " Sparta",
  "7605": " arrive",
  "7606": " soph",
  "7607": " sovere",
  "7608": "terday",
  "7609": "Î¹Îº",
  "7610": " factory",
  "7611": " recon",
  "7612": " juicy",
  "7613": " neglect",
  "7614": "spring",
  "7615": "ffee",
  "7616": " tant",
  "7617": " fires",
  "7618": " ty",
  "7619": " beast",
  "7620": " forum",
  "7621": " Betty",
  "7622": " coffee",
  "7623": " Sunny",
  "7624": " Snow",
  "7625": " entrance",
  "7626": "irs",
  "7627": " wherever",
  "7628": "enance",
  "7629": " cardboard",
  "7630": " ahead",
  "7631": "AC",
  "7632": " problems",
  "7633": " Corn",
  "7634": "lled",
  "7635": " jokes",
  "7636": " wax",
  "7637": " CH",
  "7638": "aeans",
  "7639": "vision",
  "7640": "anim",
  "7641": " 54",
  "7642": " mistakes",
  "7643": " alien",
  "7644": " papers",
  "7645": " spilled",
  "7646": "ona",
  "7647": "angar",
  "7648": " blackboard",
  "7649": "avel",
  "7650": " skirt",
  "7651": "eches",
  "7652": "assed",
  "7653": " beheld",
  "7654": " suitable",
  "7655": "bat",
  "7656": "Fluffy",
  "7657": "lection",
  "7658": " pinch",
  "7659": " burden",
  "7660": " Zoom",
  "7661": " greedy",
  "7662": " puri",
  "7663": "Wait",
  "7664": " newsp",
  "7665": " penguin",
  "7666": " Claud",
  "7667": " failed",
  "7668": " behalf",
  "7669": " mourn",
  "7670": " habe",
  "7671": " naked",
  "7672": " keeps",
  "7673": " Under",
  "7674": " information",
  "7675": " ingen",
  "7676": "rast",
  "7677": "inoceros",
  "7678": " helper",
  "7679": " elected",
  "7680": " flatter",
  "7681": " ded",
  "7682": "lict",
  "7683": " bank",
  "7684": " lev",
  "7685": " Africa",
  "7686": " conceived",
  "7687": " breakfast",
  "7688": "phi",
  "7689": " extremely",
  "7690": " charged",
  "7691": " returning",
  "7692": " Tweet",
  "7693": "oured",
  "7694": " praised",
  "7695": " swamp",
  "7696": " retire",
  "7697": " igloo",
  "7698": " communic",
  "7699": " rational",
  "7700": "OD",
  "7701": " conspir",
  "7702": " Sm",
  "7703": " Bessie",
  "7704": " victorious",
  "7705": " ascend",
  "7706": "cius",
  "7707": " divers",
  "7708": " recorded",
  "7709": "iop",
  "7710": " summoned",
  "7711": "angaroo",
  "7712": "undry",
  "7713": " verses",
  "7714": " fifth",
  "7715": " security",
  "7716": "ici",
  "7717": " sine",
  "7718": " praetor",
  "7719": " greet",
  "7720": " belonging",
  "7721": " accidentally",
  "7722": " answers",
  "7723": " hanger",
  "7724": " Ele",
  "7725": " magazine",
  "7726": " demons",
  "7727": " Ii",
  "7728": "ault",
  "7729": " bosom",
  "7730": " gaul",
  "7731": "ham",
  "7732": " mummy",
  "7733": " extended",
  "7734": " lacedaem",
  "7735": " starts",
  "7736": "ulla",
  "7737": " otter",
  "7738": " treatment",
  "7739": " faucet",
  "7740": "rete",
  "7741": " rake",
  "7742": " cabinet",
  "7743": "htray",
  "7744": " calendar",
  "7745": " Augustus",
  "7746": " gear",
  "7747": " wipe",
  "7748": " regarding",
  "7749": " Had",
  "7750": " defeat",
  "7751": " laundry",
  "7752": "icians",
  "7753": " misery",
  "7754": " cherries",
  "7755": " fastest",
  "7756": " pursued",
  "7757": " letting",
  "7758": "aud",
  "7759": "BOOK",
  "7760": " directed",
  "7761": "oreal",
  "7762": " dispers",
  "7763": "anwhile",
  "7764": "dysseus",
  "7765": " bord",
  "7766": " opposition",
  "7767": " heroes",
  "7768": " Dr",
  "7769": " curi",
  "7770": " roared",
  "7771": "ellus",
  "7772": " microscope",
  "7773": " cicero",
  "7774": " tornado",
  "7775": " reser",
  "7776": " kangaroo",
  "7777": "thren",
  "7778": " cutting",
  "7779": " disturbed",
  "7780": " intr",
  "7781": " thorough",
  "7782": "idently",
  "7783": "ÏÎ¿Ï",
  "7784": " weakness",
  "7785": "Did",
  "7786": " countrymen",
  "7787": " Thebes",
  "7788": " navy",
  "7789": " hollow",
  "7790": "itol",
  "7791": " stared",
  "7792": " prevented",
  "7793": " fol",
  "7794": "tur",
  "7795": "isure",
  "7796": " intent",
  "7797": " doesn",
  "7798": " vehicle",
  "7799": " lawy",
  "7800": " rhinoceros",
  "7801": " xl",
  "7802": " theater",
  "7803": " Spain",
  "7804": " resemblance",
  "7805": "ampoo",
  "7806": " searching",
  "7807": " rhythm",
  "7808": " Script",
  "7809": "Ar",
  "7810": " reinde",
  "7811": "armed",
  "7812": "Grand",
  "7813": "ints",
  "7814": " departed",
  "7815": " mouths",
  "7816": " razor",
  "7817": " gas",
  "7818": " inclined",
  "7819": " society",
  "7820": "oys",
  "7821": " Zip",
  "7822": " fireplace",
  "7823": " Virg",
  "7824": " prosec",
  "7825": " Mel",
  "7826": " virtuous",
  "7827": " Ovid",
  "7828": " comparison",
  "7829": " dispute",
  "7830": " remem",
  "7831": " abundance",
  "7832": "atis",
  "7833": " oats",
  "7834": "Ã«",
  "7835": "stairs",
  "7836": " visited",
  "7837": " foes",
  "7838": " Spike",
  "7839": " tightly",
  "7840": "rob",
  "7841": "Joe",
  "7842": " ashtray",
  "7843": " leisure",
  "7844": " xi",
  "7845": "inked",
  "7846": " Venus",
  "7847": " Himself",
  "7848": " reader",
  "7849": "apped",
  "7850": "cer",
  "7851": "otten",
  "7852": "law",
  "7853": " spart",
  "7854": " accustomed",
  "7855": " row",
  "7856": " toilet",
  "7857": " reindeer",
  "7858": " extraord",
  "7859": " Earth",
  "7860": " acquired",
  "7861": "elling",
  "7862": " FÃ©e",
  "7863": "ulate",
  "7864": "echan",
  "7865": "tion",
  "7866": " exclaimed",
  "7867": " deserved",
  "7868": " deceived",
  "7869": " Antiochus",
  "7870": "Î¿Ï",
  "7871": "issim",
  "7872": " wherein",
  "7873": " sooner",
  "7874": " estate",
  "7875": " Tiberius",
  "7876": " previously",
  "7877": " magnific",
  "7878": " maced",
  "7879": " purch",
  "7880": " jews",
  "7881": "Ow",
  "7882": " distinguish",
  "7883": " greece",
  "7884": " warning",
  "7885": " incons",
  "7886": " eo",
  "7887": " Var",
  "7888": " breaking",
  "7889": " Persian",
  "7890": "olic",
  "7891": " recognize",
  "7892": " gaz",
  "7893": " ostr",
  "7894": "estic",
  "7895": " debt",
  "7896": " suspicion",
  "7897": " treasures",
  "7898": " moderate",
  "7899": " deserted",
  "7900": " lect",
  "7901": " nic",
  "7902": " Kim",
  "7903": "Î­Ï",
  "7904": " nowhere",
  "7905": "semble",
  "7906": " dictionary",
  "7907": " conceive",
  "7908": " shampoo",
  "7909": " jumps",
  "7910": " swinging",
  "7911": "anks",
  "7912": " jewelry",
  "7913": " Epic",
  "7914": " prophets",
  "7915": " despair",
  "7916": " Never",
  "7917": " consult",
  "7918": " Olymp",
  "7919": " privile",
  "7920": " rail",
  "7921": " banks",
  "7922": " Sab",
  "7923": " operation",
  "7924": " shakes",
  "7925": " experi",
  "7926": "oves",
  "7927": " promises",
  "7928": " prevailed",
  "7929": " mechan",
  "7930": " represented",
  "7931": " disaster",
  "7932": " Scyth",
  "7933": "eca",
  "7934": " Crass",
  "7935": " zipper",
  "7936": " occasions",
  "7937": " breathe",
  "7938": " maintained",
  "7939": "ÏÎ¿Î½",
  "7940": " voyage",
  "7941": " horsemen",
  "7942": " therm",
  "7943": " zeal",
  "7944": "allas",
  "7945": " dangers",
  "7946": " benefits",
  "7947": " colony",
  "7948": "ipping",
  "7949": "empted",
  "7950": " seize",
  "7951": " haec",
  "7952": " spite",
  "7953": " vote",
  "7954": " bree",
  "7955": " beef",
  "7956": "itum",
  "7957": "Next",
  "7958": " Gall",
  "7959": " accur",
  "7960": " television",
  "7961": " peek",
  "7962": " nunc",
  "7963": " supported",
  "7964": " requires",
  "7965": " 55",
  "7966": " misfortune",
  "7967": " bathrobe",
  "7968": " brethren",
  "7969": "000",
  "7970": "asy",
  "7971": " conception",
  "7972": "zag",
  "7973": " bride",
  "7974": "Ï",
  "7975": " sparkly",
  "7976": "amin",
  "7977": " external",
  "7978": "uf",
  "7979": "VI",
  "7980": "Mummy",
  "7981": " deserve",
  "7982": " gasped",
  "7983": " anyway",
  "7984": " Comp",
  "7985": "look",
  "7986": "affe",
  "7987": " fixing",
  "7988": " intercourse",
  "7989": "illus",
  "7990": " dishes",
  "7991": " creek",
  "7992": " spiritual",
  "7993": " opening",
  "7994": " Among",
  "7995": "ogenes",
  "7996": "25",
  "7997": " accompanied",
  "7998": " whatsoever",
  "7999": " Susie",
  "8000": " feared",
  "8001": " oppress",
  "8002": " obst",
  "8003": " perfection",
  "8004": " popped",
  "8005": " absolutely",
  "8006": " Emperor",
  "8007": "Little",
  "8008": " quarter",
  "8009": " foundation",
  "8010": "antur",
  "8011": " Toby",
  "8012": " windows",
  "8013": " doom",
  "8014": "sters",
  "8015": "they",
  "8016": " captured",
  "8017": " product",
  "8018": "ita",
  "8019": " Publius",
  "8020": "isp",
  "8021": "inal",
  "8022": " warn",
  "8023": " completely",
  "8024": "being",
  "8025": " coh",
  "8026": " begged",
  "8027": " colon",
  "8028": " unpack",
  "8029": " manage",
  "8030": " End",
  "8031": " shepher",
  "8032": " comment",
  "8033": " cared",
  "8034": "emper",
  "8035": "cad",
  "8036": " readily",
  "8037": " Marius",
  "8038": " Com",
  "8039": " flee",
  "8040": " banqu",
  "8041": "UR",
  "8042": " poems",
  "8043": " cobweb",
  "8044": " mutual",
  "8045": " Mount",
  "8046": "alm",
  "8047": " eagerly",
  "8048": " voices",
  "8049": " quietly",
  "8050": "ients",
  "8051": "igzag",
  "8052": " rust",
  "8053": " sixty",
  "8054": " control",
  "8055": "ilities",
  "8056": " trains",
  "8057": " dancer",
  "8058": " bew",
  "8059": "change",
  "8060": " grad",
  "8061": " subway",
  "8062": " tuna",
  "8063": " eum",
  "8064": " LETTER",
  "8065": " sunset",
  "8066": " extraordinary",
  "8067": " freezer",
  "8068": " caring",
  "8069": " offspring",
  "8070": " Them",
  "8071": "wealth",
  "8072": "eo",
  "8073": " strife",
  "8074": "urius",
  "8075": " newspaper",
  "8076": " Trojan",
  "8077": " bikes",
  "8078": " spare",
  "8079": " holid",
  "8080": " buckle",
  "8081": " inquire",
  "8082": " include",
  "8083": " dreaming",
  "8084": "OP",
  "8085": "Page",
  "8086": " proudly",
  "8087": "ifying",
  "8088": " somewhere",
  "8089": "resh",
  "8090": "eked",
  "8091": "ffic",
  "8092": " Ã¾ou",
  "8093": " mour",
  "8094": " memor",
  "8095": " dw",
  "8096": "ura",
  "8097": "olus",
  "8098": " obscure",
  "8099": " appeal",
  "8100": " respons",
  "8101": "enses",
  "8102": " cert",
  "8103": " baptized",
  "8104": " draws",
  "8105": " prevail",
  "8106": "á½°Ï",
  "8107": " restaur",
  "8108": " sandwiches",
  "8109": " float",
  "8110": "ushing",
  "8111": "aved",
  "8112": " rights",
  "8113": " butterflies",
  "8114": " conj",
  "8115": " quem",
  "8116": " billboard",
  "8117": " ÏÎ±",
  "8118": " stickers",
  "8119": " explanation",
  "8120": " bookcase",
  "8121": " leaders",
  "8122": " acknowled",
  "8123": " elsewhere",
  "8124": " squirrels",
  "8125": " scene",
  "8126": " flav",
  "8127": "alian",
  "8128": " Ed",
  "8129": "----------------",
  "8130": " reproach",
  "8131": " ambition",
  "8132": " speeches",
  "8133": "icip",
  "8134": "elcome",
  "8135": " brick",
  "8136": " valour",
  "8137": " encoun",
  "8138": " tease",
  "8139": " crib",
  "8140": "iÃ¾",
  "8141": " views",
  "8142": " sanct",
  "8143": " unlike",
  "8144": " intim",
  "8145": " Cal",
  "8146": "archy",
  "8147": " gym",
  "8148": " eleg",
  "8149": " pompey",
  "8150": " restaurant",
  "8151": " travell",
  "8152": " plenty",
  "8153": " mustache",
  "8154": " access",
  "8155": " Î³á½°Ï",
  "8156": " Two",
  "8157": "**",
  "8158": " appropri",
  "8159": "LI",
  "8160": "Thus",
  "8161": " reef",
  "8162": " definition",
  "8163": " snap",
  "8164": "bl",
  "8165": " theat",
  "8166": "restes",
  "8167": " ard",
  "8168": " Love",
  "8169": " characters",
  "8170": " beep",
  "8171": "gthen",
  "8172": " cards",
  "8173": " Bo",
  "8174": " reflect",
  "8175": " mischief",
  "8176": " whither",
  "8177": " blouse",
  "8178": " rubber",
  "8179": " fors",
  "8180": " audience",
  "8181": " laying",
  "8182": " leather",
  "8183": " concern",
  "8184": " rash",
  "8185": " flat",
  "8186": " griev",
  "8187": " rum",
  "8188": " accomplished",
  "8189": "ÎºÎ±",
  "8190": " disciples",
  "8191": "ÏÎ±",
  "8192": " zeus",
  "8193": " Cyp",
  "8194": " Frog",
  "8195": " precept",
  "8196": "vert",
  "8197": " supposing",
  "8198": " rhetoric",
  "8199": " oxen",
  "8200": " aux",
  "8201": " adap",
  "8202": "icing",
  "8203": "eak",
  "8204": " venture",
  "8205": " Sea",
  "8206": "ilia",
  "8207": " squeeze",
  "8208": "30",
  "8209": " leap",
  "8210": " sofa",
  "8211": " giraffe",
  "8212": " active",
  "8213": "etur",
  "8214": " Because",
  "8215": " wandering",
  "8216": " lawyer",
  "8217": "Ouch",
  "8218": " Col",
  "8219": " appet",
  "8220": " determine",
  "8221": " luck",
  "8222": " genu",
  "8223": " scrib",
  "8224": " lawn",
  "8225": " homer",
  "8226": " Moses",
  "8227": "helf",
  "8228": " oasis",
  "8229": "ÏÎ¿Î½",
  "8230": " contrad",
  "8231": " vinegar",
  "8232": " erected",
  "8233": " Hor",
  "8234": " splendid",
  "8235": " Claudius",
  "8236": " sweetie",
  "8237": " strip",
  "8238": " David",
  "8239": " varieties",
  "8240": " Titus",
  "8241": "aun",
  "8242": " commanders",
  "8243": " sadly",
  "8244": "onic",
  "8245": " Gauls",
  "8246": " respectful",
  "8247": " absent",
  "8248": " Mrs",
  "8249": "iche",
  "8250": "oris",
  "8251": " revenge",
  "8252": "ERO",
  "8253": " junk",
  "8254": "eding",
  "8255": " blueberries",
  "8256": " embass",
  "8257": " unwilling",
  "8258": " Bishop",
  "8259": "ogra",
  "8260": " TH",
  "8261": " leaned",
  "8262": " Pis",
  "8263": "standing",
  "8264": " toss",
  "8265": " discipline",
  "8266": " swung",
  "8267": " treaty",
  "8268": "istrat",
  "8269": " vex",
  "8270": " serpents",
  "8271": " encamp",
  "8272": " 56",
  "8273": " devoted",
  "8274": " ceiling",
  "8275": "org",
  "8276": " apostle",
  "8277": "rael",
  "8278": "ritus",
  "8279": " seats",
  "8280": " Jerusalem",
  "8281": " lumber",
  "8282": " airport",
  "8283": " ÏÎµÏ",
  "8284": " foul",
  "8285": "urrection",
  "8286": " igitur",
  "8287": " preceding",
  "8288": " berry",
  "8289": " dressed",
  "8290": "ipater",
  "8291": "REEK",
  "8292": " slippery",
  "8293": " easier",
  "8294": " bas",
  "8295": " bookshelf",
  "8296": " English",
  "8297": "Ex",
  "8298": " achieve",
  "8299": " teasp",
  "8300": " pirates",
  "8301": " rang",
  "8302": " Fabius",
  "8303": "tha",
  "8304": " popul",
  "8305": " equip",
  "8306": "ometer",
  "8307": " knob",
  "8308": "Ant",
  "8309": " governor",
  "8310": "rets",
  "8311": " pupil",
  "8312": " streams",
  "8313": "rant",
  "8314": "anqu",
  "8315": " unw",
  "8316": " conform",
  "8317": " impressed",
  "8318": " simpl",
  "8319": " ip",
  "8320": " Fort",
  "8321": " respects",
  "8322": "erva",
  "8323": " refriger",
  "8324": " harbour",
  "8325": " javel",
  "8326": " exception",
  "8327": " dwelling",
  "8328": " ascertain",
  "8329": " Eum",
  "8330": " penalty",
  "8331": "Will",
  "8332": " decreed",
  "8333": "iana",
  "8334": " predic",
  "8335": " plainly",
  "8336": " Crassus",
  "8337": " supplied",
  "8338": " poked",
  "8339": " permission",
  "8340": " badly",
  "8341": " darts",
  "8342": "thiop",
  "8343": " supplies",
  "8344": " pushing",
  "8345": " arranged",
  "8346": "lar",
  "8347": "acuse",
  "8348": " senators",
  "8349": "Am",
  "8350": " mysteries",
  "8351": " interpret",
  "8352": " rival",
  "8353": " boiled",
  "8354": " abandoned",
  "8355": " nearest",
  "8356": " Teddy",
  "8357": " belly",
  "8358": " cares",
  "8359": "De",
  "8360": "vius",
  "8361": " jove",
  "8362": " customs",
  "8363": " sex",
  "8364": " dia",
  "8365": " peeked",
  "8366": " deity",
  "8367": " edition",
  "8368": " dimin",
  "8369": " administer",
  "8370": " plates",
  "8371": " rulers",
  "8372": " shores",
  "8373": "ati",
  "8374": " recoll",
  "8375": " vanqu",
  "8376": " harbor",
  "8377": "uten",
  "8378": " eagle",
  "8379": "isen",
  "8380": " \"--",
  "8381": " chorus",
  "8382": " resolution",
  "8383": " checked",
  "8384": "keness",
  "8385": " august",
  "8386": " annoy",
  "8387": " myth",
  "8388": " useless",
  "8389": " brass",
  "8390": " critic",
  "8391": "uria",
  "8392": " dreadful",
  "8393": " reasonable",
  "8394": "erate",
  "8395": " dedicated",
  "8396": " bind",
  "8397": " spoils",
  "8398": "des",
  "8399": " sem",
  "8400": " continually",
  "8401": " beard",
  "8402": "ollow",
  "8403": " nearer",
  "8404": " publ",
  "8405": "Î¯Î±Î½",
  "8406": " quiz",
  "8407": " 60",
  "8408": "five",
  "8409": "tree",
  "8410": " countenance",
  "8411": " chasing",
  "8412": " capital",
  "8413": " claws",
  "8414": " century",
  "8415": "estor",
  "8416": "bing",
  "8417": " convinc",
  "8418": "cage",
  "8419": " reveal",
  "8420": " relief",
  "8421": " twirl",
  "8422": " Dolly",
  "8423": "oked",
  "8424": " lid",
  "8425": "ID",
  "8426": " level",
  "8427": " studied",
  "8428": " Take",
  "8429": " measured",
  "8430": " ostrich",
  "8431": " arbit",
  "8432": " apprehens",
  "8433": "Very",
  "8434": " inher",
  "8435": " earthquake",
  "8436": " brightly",
  "8437": " birdcage",
  "8438": " testimony",
  "8439": " ability",
  "8440": " offices",
  "8441": " farther",
  "8442": " teaspoon",
  "8443": " cro",
  "8444": " Grandpa",
  "8445": " curs",
  "8446": " submit",
  "8447": " refuge",
  "8448": " deeper",
  "8449": " challen",
  "8450": " worn",
  "8451": " officer",
  "8452": "his",
  "8453": " subdued",
  "8454": " inflicted",
  "8455": " revealed",
  "8456": " hunger",
  "8457": " trif",
  "8458": " monkeys",
  "8459": " Im",
  "8460": "there",
  "8461": " regions",
  "8462": " ceased",
  "8463": "ca",
  "8464": " Lee",
  "8465": "Daisy",
  "8466": " shock",
  "8467": "ecess",
  "8468": " Tar",
  "8469": " arrows",
  "8470": "eno",
  "8471": " attempted",
  "8472": " marvell",
  "8473": " departure",
  "8474": " therein",
  "8475": "neas",
  "8476": " cogn",
  "8477": " apprec",
  "8478": " Pandy",
  "8479": " marked",
  "8480": " throat",
  "8481": " natures",
  "8482": " vices",
  "8483": " immort",
  "8484": "ped",
  "8485": "mo",
  "8486": " commend",
  "8487": " quibus",
  "8488": " union",
  "8489": "verted",
  "8490": " sits",
  "8491": " surprises",
  "8492": " apron",
  "8493": " instant",
  "8494": " mixture",
  "8495": "40",
  "8496": "icted",
  "8497": " apolog",
  "8498": "ushes",
  "8499": "rh",
  "8500": "inarian",
  "8501": "Un",
  "8502": " stadium",
  "8503": " revolt",
  "8504": " colleague",
  "8505": " jail",
  "8506": " tremble",
  "8507": " obl",
  "8508": " gy",
  "8509": " prodig",
  "8510": "por",
  "8511": " insisted",
  "8512": "oused",
  "8513": " ÏÏá½¸Ï",
  "8514": " Demetrius",
  "8515": " altars",
  "8516": " slavery",
  "8517": "uggage",
  "8518": "arewell",
  "8519": "!\".",
  "8520": " clam",
  "8521": " project",
  "8522": " panda",
  "8523": " blinked",
  "8524": "pr",
  "8525": " hab",
  "8526": " springs",
  "8527": " nour",
  "8528": " obedience",
  "8529": " dur",
  "8530": " mineral",
  "8531": " philip",
  "8532": " chairs",
  "8533": " mortals",
  "8534": "\";",
  "8535": " furnished",
  "8536": " refrigerator",
  "8537": "odorus",
  "8538": "ilus",
  "8539": " differences",
  "8540": "ventually",
  "8541": " Senate",
  "8542": " Car",
  "8543": " wreck",
  "8544": " Demosthenes",
  "8545": "inos",
  "8546": " lap",
  "8547": " transfer",
  "8548": " classroom",
  "8549": " accordance",
  "8550": " proceeds",
  "8551": "esty",
  "8552": " brand",
  "8553": " embrace",
  "8554": "inated",
  "8555": " replace",
  "8556": " reverence",
  "8557": " Syria",
  "8558": " misfortunes",
  "8559": " ramp",
  "8560": " proceeding",
  "8561": " ingred",
  "8562": " sting",
  "8563": " luggage",
  "8564": " incur",
  "8565": " discovery",
  "8566": " chains",
  "8567": "amas",
  "8568": " flowing",
  "8569": " engage",
  "8570": " rooms",
  "8571": "22",
  "8572": " faculty",
  "8573": " barks",
  "8574": " occurred",
  "8575": "asian",
  "8576": " Ma",
  "8577": " grain",
  "8578": " reaches",
  "8579": "ÎµÎ»",
  "8580": " cudd",
  "8581": "alia",
  "8582": " Grecian",
  "8583": " thermometer",
  "8584": " included",
  "8585": "entia",
  "8586": " 58",
  "8587": " Serv",
  "8588": " hurried",
  "8589": "ok",
  "8590": "eration",
  "8591": " flows",
  "8592": "sed",
  "8593": " tar",
  "8594": " Arch",
  "8595": " steam",
  "8596": " writes",
  "8597": " dominion",
  "8598": " softly",
  "8599": "igonus",
  "8600": " bab",
  "8601": " Ptolemy",
  "8602": "ules",
  "8603": " guests",
  "8604": " affair",
  "8605": " eld",
  "8606": " release",
  "8607": " victims",
  "8608": " spade",
  "8609": " frowned",
  "8610": " yawn",
  "8611": "leg",
  "8612": " sunrise",
  "8613": " whirl",
  "8614": "itors",
  "8615": " recall",
  "8616": " á¼Î»Î»",
  "8617": " player",
  "8618": " divide",
  "8619": "ophanes",
  "8620": "alc",
  "8621": " knees",
  "8622": " combat",
  "8623": " wishing",
  "8624": " SM",
  "8625": " princes",
  "8626": " poly",
  "8627": "heart",
  "8628": " originally",
  "8629": " shot",
  "8630": " ATTIC",
  "8631": " conducted",
  "8632": " shouting",
  "8633": " tumult",
  "8634": "CHORUS",
  "8635": " rout",
  "8636": "ICERO",
  "8637": " Argos",
  "8638": " Alexand",
  "8639": " holiday",
  "8640": "á¿",
  "8641": "asmuch",
  "8642": " reject",
  "8643": " kisses",
  "8644": " 57",
  "8645": "Ã¦a",
  "8646": " script",
  "8647": " score",
  "8648": " divisions",
  "8649": " nos",
  "8650": " consular",
  "8651": " zoomed",
  "8652": " guardian",
  "8653": " Amb",
  "8654": " ribbon",
  "8655": " herds",
  "8656": " serpent",
  "8657": " Ass",
  "8658": " condemn",
  "8659": " Speed",
  "8660": " Brit",
  "8661": " garments",
  "8662": " advantages",
  "8663": " touching",
  "8664": " theory",
  "8665": " attributed",
  "8666": " Peloponnes",
  "8667": " daring",
  "8668": " praises",
  "8669": "rial",
  "8670": " verb",
  "8671": " overt",
  "8672": " aston",
  "8673": " commonly",
  "8674": " excuse",
  "8675": " sends",
  "8676": "Ã¯",
  "8677": "eorge",
  "8678": " defect",
  "8679": "usc",
  "8680": " satisfaction",
  "8681": " herod",
  "8682": " Bow",
  "8683": "ams",
  "8684": " community",
  "8685": " excl",
  "8686": " sisters",
  "8687": " chickens",
  "8688": "rippa",
  "8689": " Agamemnon",
  "8690": " accounts",
  "8691": " hem",
  "8692": "thank",
  "8693": " likeness",
  "8694": " Sl",
  "8695": " unm",
  "8696": " habits",
  "8697": " pardon",
  "8698": " forgave",
  "8699": " earthly",
  "8700": " choo",
  "8701": " Cr",
  "8702": "urope",
  "8703": "icia",
  "8704": "rastus",
  "8705": " dwelt",
  "8706": "Because",
  "8707": " prosperity",
  "8708": " eminent",
  "8709": " Ow",
  "8710": " keen",
  "8711": "bles",
  "8712": " plebe",
  "8713": "unction",
  "8714": "AE",
  "8715": " quas",
  "8716": " commonwealth",
  "8717": " pulls",
  "8718": " freely",
  "8719": "itated",
  "8720": " shields",
  "8721": " carth",
  "8722": " relative",
  "8723": " classes",
  "8724": " genus",
  "8725": " brighter",
  "8726": " conditions",
  "8727": " Arab",
  "8728": "ricane",
  "8729": " kindred",
  "8730": "Î±Î¯",
  "8731": " ignore",
  "8732": " literature",
  "8733": " ille",
  "8734": "GREEK",
  "8735": "iki",
  "8736": " messenger",
  "8737": " besieged",
  "8738": "greek",
  "8739": " existed",
  "8740": " patricians",
  "8741": " uttered",
  "8742": "24",
  "8743": " á¼ÏÎ¹",
  "8744": " pleasing",
  "8745": "atius",
  "8746": "see",
  "8747": " 70",
  "8748": " succ",
  "8749": " rained",
  "8750": " oppose",
  "8751": " omnia",
  "8752": " leak",
  "8753": " worms",
  "8754": " offence",
  "8755": " charges",
  "8756": "eris",
  "8757": "IX",
  "8758": " ruins",
  "8759": " dies",
  "8760": "inations",
  "8761": " chs",
  "8762": " SMALL",
  "8763": "reus",
  "8764": " firework",
  "8765": " withdraw",
  "8766": " smells",
  "8767": "rusted",
  "8768": "ogues",
  "8769": " patience",
  "8770": " ÏÎ¿á½ºÏ",
  "8771": " shove",
  "8772": " plastic",
  "8773": " treatise",
  "8774": " Sim",
  "8775": "OC",
  "8776": " risk",
  "8777": " consequently",
  "8778": "Èt",
  "8779": " stock",
  "8780": "au",
  "8781": " expense",
  "8782": " nisi",
  "8783": " pest",
  "8784": " Mars",
  "8785": " fifteen",
  "8786": " banished",
  "8787": " temperance",
  "8788": " application",
  "8789": "omit",
  "8790": " aus",
  "8791": " Iii",
  "8792": " acquaint",
  "8793": " displayed",
  "8794": " Antony",
  "8795": " blowing",
  "8796": " assembled",
  "8797": " governed",
  "8798": " Ellie",
  "8799": " devel",
  "8800": "ipus",
  "8801": " fug",
  "8802": " approaching",
  "8803": "ilis",
  "8804": " Mess",
  "8805": "Chorus",
  "8806": " dim",
  "8807": " Xenophon",
  "8808": " Fox",
  "8809": " constantly",
  "8810": " XX",
  "8811": " moderation",
  "8812": " clapping",
  "8813": " abstr",
  "8814": " Holy",
  "8815": " thri",
  "8816": " narrat",
  "8817": "using",
  "8818": " commission",
  "8819": "Î»Î¹",
  "8820": "udic",
  "8821": "issa",
  "8822": " evidently",
  "8823": " Plutarch",
  "8824": " rejo",
  "8825": "Some",
  "8826": " matches",
  "8827": " entertained",
  "8828": " tore",
  "8829": "iven",
  "8830": " instructions",
  "8831": " lin",
  "8832": " yesterday",
  "8833": " cherry",
  "8834": " pious",
  "8835": " REM",
  "8836": "aviour",
  "8837": " relate",
  "8838": " cyp",
  "8839": "yrrhus",
  "8840": " Sun",
  "8841": " toils",
  "8842": " shadows",
  "8843": " puddles",
  "8844": "ÏÎ·",
  "8845": " 67",
  "8846": " deemed",
  "8847": " sect",
  "8848": " shivering",
  "8849": " veterinarian",
  "8850": " kneel",
  "8851": " followers",
  "8852": " persec",
  "8853": " dragged",
  "8854": " herbs",
  "8855": " connection",
  "8856": " approached",
  "8857": " Christians",
  "8858": " twisted",
  "8859": " ranch",
  "8860": "asting",
  "8861": "23",
  "8862": " copy",
  "8863": " murd",
  "8864": " tip",
  "8865": " innocent",
  "8866": " sneezed",
  "8867": " Amph",
  "8868": " strain",
  "8869": " excitedly",
  "8870": " phrase",
  "8871": " despise",
  "8872": " sensation",
  "8873": " describe",
  "8874": " designs",
  "8875": " Juno",
  "8876": " refers",
  "8877": " appoint",
  "8878": " Lucullus",
  "8879": "Mr",
  "8880": " approved",
  "8881": "aea",
  "8882": " heed",
  "8883": " Big",
  "8884": " lung",
  "8885": " dilig",
  "8886": " providence",
  "8887": " groan",
  "8888": " 59",
  "8889": " grabs",
  "8890": " neglected",
  "8891": "olation",
  "8892": " Rh",
  "8893": " benefic",
  "8894": " assault",
  "8895": " destitute",
  "8896": " stem",
  "8897": " pigs",
  "8898": " growth",
  "8899": " fetch",
  "8900": " effort",
  "8901": " loving",
  "8902": " pled",
  "8903": " hinder",
  "8904": "ROM",
  "8905": " salvation",
  "8906": " attained",
  "8907": "asks",
  "8908": " singular",
  "8909": " results",
  "8910": "rons",
  "8911": " excellence",
  "8912": " robe",
  "8913": " unre",
  "8914": "gent",
  "8915": "anias",
  "8916": " excite",
  "8917": "NE",
  "8918": " encourage",
  "8919": " difficulties",
  "8920": "leness",
  "8921": " shun",
  "8922": " aught",
  "8923": " scorn",
  "8924": " Neither",
  "8925": " resent",
  "8926": " heret",
  "8927": " afric",
  "8928": "lets",
  "8929": " remote",
  "8930": " final",
  "8931": "ÏÎµÏ",
  "8932": " solic",
  "8933": " cyrus",
  "8934": " ÏÎ¹",
  "8935": " maxim",
  "8936": " repent",
  "8937": " idle",
  "8938": " household",
  "8939": " whereby",
  "8940": " beans",
  "8941": " tribute",
  "8942": " erat",
  "8943": " mistaken",
  "8944": " poppy",
  "8945": "vals",
  "8946": " Nero",
  "8947": " sentiments",
  "8948": " seventy",
  "8949": " maiden",
  "8950": " symp",
  "8951": " Bill",
  "8952": " acknowledge",
  "8953": "aetetus",
  "8954": "ization",
  "8955": " altern",
  "8956": " coats",
  "8957": "atio",
  "8958": " du",
  "8959": "cles",
  "8960": " denied",
  "8961": " degrees",
  "8962": " desper",
  "8963": " fain",
  "8964": " Aj",
  "8965": "fulness",
  "8966": "ÏÎµÏ",
  "8967": "vol",
  "8968": " breeze",
  "8969": " gaze",
  "8970": " thoroughly",
  "8971": " reasoning",
  "8972": " lent",
  "8973": "ilian",
  "8974": " policy",
  "8975": " divin",
  "8976": " hurricane",
  "8977": " election",
  "8978": " swear",
  "8979": " illum",
  "8980": "ala",
  "8981": "isite",
  "8982": " approve",
  "8983": "lem",
  "8984": " yoke",
  "8985": " Carl",
  "8986": " bounds",
  "8987": " Eury",
  "8988": " gratitude",
  "8989": "Î¿Ï",
  "8990": " geomet",
  "8991": " engagement",
  "8992": " Pap",
  "8993": " execution",
  "8994": " Rhod",
  "8995": "cription",
  "8996": " preparing",
  "8997": " unse",
  "8998": " About",
  "8999": " planes",
  "9000": " reflection",
  "9001": " penet",
  "9002": " Buzzy",
  "9003": "tlein",
  "9004": "auc",
  "9005": " sniffed",
  "9006": "riety",
  "9007": "RAT",
  "9008": " tables",
  "9009": "á¿¶Ï",
  "9010": " pushes",
  "9011": " comr",
  "9012": "lon",
  "9013": " fel",
  "9014": " adding",
  "9015": " strongly",
  "9016": " descended",
  "9017": " inspired",
  "9018": " 66",
  "9019": " cloak",
  "9020": " tracks",
  "9021": " etern",
  "9022": " Nothing",
  "9023": " Jazz",
  "9024": " composition",
  "9025": "Sp",
  "9026": " Ages",
  "9027": " Through",
  "9028": " Chap",
  "9029": " tranqu",
  "9030": " fid",
  "9031": "TO",
  "9032": " tempt",
  "9033": " Bar",
  "9034": "zes",
  "9035": " invitation",
  "9036": " conflict",
  "9037": " alleg",
  "9038": " sets",
  "9039": " imitate",
  "9040": "acitus",
  "9041": "EDIES",
  "9042": " xxv",
  "9043": " hereafter",
  "9044": " genuine",
  "9045": " exhort",
  "9046": " subsist",
  "9047": " prÃ¦tor",
  "9048": " grounds",
  "9049": "Thou",
  "9050": " thumb",
  "9051": " regards",
  "9052": " tradition",
  "9053": " tyranny",
  "9054": "igi",
  "9055": " socks",
  "9056": " array",
  "9057": " conscience",
  "9058": "cit",
  "9059": "amis",
  "9060": " sphere",
  "9061": "agues",
  "9062": " 51",
  "9063": " vulgar",
  "9064": " thrust",
  "9065": " cartoon",
  "9066": "CICERO",
  "9067": " weary",
  "9068": " induced",
  "9069": " changing",
  "9070": " drunk",
  "9071": "Before",
  "9072": "who",
  "9073": " sticker",
  "9074": " pont",
  "9075": "mense",
  "9076": " reckon",
  "9077": " labours",
  "9078": " freeze",
  "9079": "erit",
  "9080": " directions",
  "9081": " abode",
  "9082": "igning",
  "9083": " woes",
  "9084": "28",
  "9085": " unfort",
  "9086": " syr",
  "9087": " democracy",
  "9088": " guardians",
  "9089": " calamity",
  "9090": " assent",
  "9091": "assus",
  "9092": " warlike",
  "9093": " steeds",
  "9094": " adj",
  "9095": " cruelty",
  "9096": " consecrated",
  "9097": "50",
  "9098": "acc",
  "9099": " cong",
  "9100": "isset",
  "9101": "26",
  "9102": " Fur",
  "9103": " equipment",
  "9104": " Char",
  "9105": " folk",
  "9106": " worshipped",
  "9107": " hal",
  "9108": "oen",
  "9109": "AD",
  "9110": "27",
  "9111": "First",
  "9112": " indif",
  "9113": " advised",
  "9114": "igns",
  "9115": "Ã¨",
  "9116": " neighbours",
  "9117": " indignation",
  "9118": "ROP",
  "9119": " Varro",
  "9120": " rays",
  "9121": " curse",
  "9122": " candid",
  "9123": " statements",
  "9124": " athenian",
  "9125": " interpre",
  "9126": " esset",
  "9127": "aurus",
  "9128": " scold",
  "9129": "awned",
  "9130": " mechanic",
  "9131": " assumed",
  "9132": " impression",
  "9133": " buildings",
  "9134": " ridiculous",
  "9135": " vanished",
  "9136": "iodorus",
  "9137": " Ïá¿·",
  "9138": " Alcibiades",
  "9139": " waving",
  "9140": " examples",
  "9141": " stroke",
  "9142": " superher",
  "9143": " rele",
  "9144": "onis",
  "9145": " effected",
  "9146": " immense",
  "9147": " schol",
  "9148": " anxiety",
  "9149": "iences",
  "9150": "iades",
  "9151": " jupiter",
  "9152": " discours",
  "9153": " mun",
  "9154": " Mike",
  "9155": " Binky",
  "9156": " wid",
  "9157": " prudence",
  "9158": "athy",
  "9159": " arises",
  "9160": "ÏÎ¼ÎµÎ½",
  "9161": "inence",
  "9162": " Macedonians",
  "9163": " victor",
  "9164": "iens",
  "9165": "IUS",
  "9166": " corruption",
  "9167": " develop",
  "9168": " Theseus",
  "9169": " ses",
  "9170": "isdom",
  "9171": " confirm",
  "9172": " Another",
  "9173": " scratch",
  "9174": " rejoice",
  "9175": " motions",
  "9176": " winning",
  "9177": " gymn",
  "9178": "Cle",
  "9179": "upp",
  "9180": " forming",
  "9181": " transgress",
  "9182": " kins",
  "9183": " web",
  "9184": " scr",
  "9185": " unn",
  "9186": " seeks",
  "9187": " interval",
  "9188": " colourful",
  "9189": " dawn",
  "9190": "olians",
  "9191": " asia",
  "9192": "add",
  "9193": " planned",
  "9194": "ira",
  "9195": " wrest",
  "9196": " digging",
  "9197": " Alice",
  "9198": " olig",
  "9199": " unworthy",
  "9200": " speaker",
  "9201": " owe",
  "9202": " fearing",
  "9203": "angled",
  "9204": "Mary",
  "9205": " castles",
  "9206": "odius",
  "9207": " superst",
  "9208": " contemplation",
  "9209": " crew",
  "9210": " nymph",
  "9211": " movements",
  "9212": " distributed",
  "9213": " collection",
  "9214": " invented",
  "9215": " marcus",
  "9216": " Republic",
  "9217": " Bubbles",
  "9218": " seasons",
  "9219": " potest",
  "9220": " recognized",
  "9221": "iti",
  "9222": " posterity",
  "9223": " university",
  "9224": "anth",
  "9225": " abandon",
  "9226": " rect",
  "9227": " intellectual",
  "9228": " Phryg",
  "9229": " Only",
  "9230": "elligence",
  "9231": " Il",
  "9232": " expressions",
  "9233": "enry",
  "9234": "Grandma",
  "9235": "SE",
  "9236": " sacrificed",
  "9237": " furious",
  "9238": " assume",
  "9239": " Out",
  "9240": "tw",
  "9241": " instantly",
  "9242": " glor",
  "9243": " Whom",
  "9244": " courts",
  "9245": " awe",
  "9246": " Ty",
  "9247": " Str",
  "9248": " latin",
  "9249": "aves",
  "9250": " mourning",
  "9251": " Olive",
  "9252": " youths",
  "9253": " banquet",
  "9254": " imitation",
  "9255": " warmth",
  "9256": " á¼",
  "9257": " mingled",
  "9258": " surn",
  "9259": " recent",
  "9260": " descent",
  "9261": "ucked",
  "9262": " Help",
  "9263": "Yay",
  "9264": " covet",
  "9265": " Freddy",
  "9266": " plains",
  "9267": "';",
  "9268": " aged",
  "9269": "apping",
  "9270": " sickness",
  "9271": " label",
  "9272": " calcul",
  "9273": "uity",
  "9274": " resting",
  "9275": " washing",
  "9276": " commit",
  "9277": " Îµá¼¶",
  "9278": " Dan",
  "9279": "Yuck",
  "9280": " quint",
  "9281": " giggle",
  "9282": " vero",
  "9283": " wandered",
  "9284": " witnesses",
  "9285": " Has",
  "9286": " myr",
  "9287": " protected",
  "9288": " righteousness",
  "9289": "scape",
  "9290": "ulations",
  "9291": " Marcellus",
  "9292": "bius",
  "9293": "sequently",
  "9294": " Tw",
  "9295": " disple",
  "9296": " Cic",
  "9297": "idents",
  "9298": "withstanding",
  "9299": " susp",
  "9300": " cu",
  "9301": " conveyed",
  "9302": " Cornelius",
  "9303": "ouch",
  "9304": " Prov",
  "9305": " soot",
  "9306": " Speedy",
  "9307": "oco",
  "9308": "mos",
  "9309": " fortunes",
  "9310": "ophrastus",
  "9311": "idon",
  "9312": " toe",
  "9313": "29",
  "9314": " legislator",
  "9315": " fert",
  "9316": " buzz",
  "9317": "ÏÎ³",
  "9318": " wigg",
  "9319": " dice",
  "9320": "rae",
  "9321": "artial",
  "9322": " grasp",
  "9323": " counsels",
  "9324": " vet",
  "9325": " crash",
  "9326": " captive",
  "9327": "Mark",
  "9328": " hers",
  "9329": "Ãª",
  "9330": "atives",
  "9331": " liquid",
  "9332": "ixt",
  "9333": "which",
  "9334": " Hebrew",
  "9335": " appe",
  "9336": " persians",
  "9337": " enum",
  "9338": " helm",
  "9339": " select",
  "9340": " lyre",
  "9341": " alc",
  "9342": " transform",
  "9343": " olives",
  "9344": " quis",
  "9345": " prune",
  "9346": "IG",
  "9347": " roads",
  "9348": " menu",
  "9349": " efforts",
  "9350": "En",
  "9351": "opes",
  "9352": "ras",
  "9353": " underground",
  "9354": " meowed",
  "9355": " enjoyment",
  "9356": " dialogue",
  "9357": " operations",
  "9358": " limits",
  "9359": "inem",
  "9360": " restrain",
  "9361": " suspect",
  "9362": " judged",
  "9363": "ronius",
  "9364": " rises",
  "9365": " oracles",
  "9366": "lam",
  "9367": " combination",
  "9368": "21",
  "9369": "ithrid",
  "9370": " fever",
  "9371": " sandcast",
  "9372": "ouin",
  "9373": " vow",
  "9374": " stead",
  "9375": " Euripides",
  "9376": " borrowed",
  "9377": " glit",
  "9378": " fitting",
  "9379": " instrument",
  "9380": " propose",
  "9381": " gathering",
  "9382": " sprung",
  "9383": " limit",
  "9384": " conferred",
  "9385": "verb",
  "9386": "PH",
  "9387": " perceiving",
  "9388": " mice",
  "9389": " meantime",
  "9390": " jesus",
  "9391": " Liv",
  "9392": " betrayed",
  "9393": " skies",
  "9394": " sprayed",
  "9395": " veins",
  "9396": "off",
  "9397": " preparations",
  "9398": " Friend",
  "9399": "istocles",
  "9400": " Pallas",
  "9401": "erers",
  "9402": " splashing",
  "9403": " Whether",
  "9404": " tribun",
  "9405": "rown",
  "9406": " entering",
  "9407": " apollo",
  "9408": " aet",
  "9409": " Oct",
  "9410": " inquiry",
  "9411": " compos",
  "9412": " sticky",
  "9413": "ulse",
  "9414": "noon",
  "9415": " Liby",
  "9416": " Dionysius",
  "9417": " dialect",
  "9418": " consum",
  "9419": " companion",
  "9420": "ivers",
  "9421": "35",
  "9422": " fec",
  "9423": " Parth",
  "9424": " Does",
  "9425": " trag",
  "9426": " observing",
  "9427": " situate",
  "9428": " cot",
  "9429": " admirable",
  "9430": " preserv",
  "9431": "icky",
  "9432": "oeot",
  "9433": " wonders",
  "9434": " procure",
  "9435": " thrice",
  "9436": " succession",
  "9437": " ideal",
  "9438": "oration",
  "9439": " designed",
  "9440": " battles",
  "9441": " contro",
  "9442": "god",
  "9443": "IST",
  "9444": "anges",
  "9445": " squeezed",
  "9446": "eres",
  "9447": "iat",
  "9448": "acusans",
  "9449": " contend",
  "9450": " brazen",
  "9451": " blessings",
  "9452": "idus",
  "9453": " inasmuch",
  "9454": " xv",
  "9455": " fiery",
  "9456": " oars",
  "9457": " antiquity",
  "9458": " demands",
  "9459": " published",
  "9460": " crimin",
  "9461": " Others",
  "9462": "iliar",
  "9463": " paul",
  "9464": "ferent",
  "9465": " obvious",
  "9466": "obulus",
  "9467": " Carthaginians",
  "9468": " nails",
  "9469": "from",
  "9470": " doctrines",
  "9471": " afterward",
  "9472": " seventh",
  "9473": " exert",
  "9474": " dispersed",
  "9475": " confined",
  "9476": " traffic",
  "9477": " vid",
  "9478": " training",
  "9479": " outr",
  "9480": " administ",
  "9481": " cheek",
  "9482": "iah",
  "9483": "itia",
  "9484": " centuri",
  "9485": "unately",
  "9486": "uph",
  "9487": " recommended",
  "9488": " hymn",
  "9489": "esse",
  "9490": "pha",
  "9491": "inias",
  "9492": " Dave",
  "9493": " bonds",
  "9494": "Such",
  "9495": " existing",
  "9496": " rested",
  "9497": " plat",
  "9498": " neighbourhood",
  "9499": " Camp",
  "9500": " possessions",
  "9501": " anticip",
  "9502": " mars",
  "9503": " tract",
  "9504": " furnish",
  "9505": " xiii",
  "9506": " lawful",
  "9507": " vanquished",
  "9508": " melted",
  "9509": " afternoon",
  "9510": "Î¿Î¼",
  "9511": " ÏÏ",
  "9512": " modesty",
  "9513": " Conf",
  "9514": "whel",
  "9515": " patri",
  "9516": "UL",
  "9517": " 68",
  "9518": "Î»Î·",
  "9519": " domestic",
  "9520": "arers",
  "9521": "hew",
  "9522": " tragedy",
  "9523": "Î®Ï",
  "9524": " honoured",
  "9525": " Macedonia",
  "9526": "acob",
  "9527": " tour",
  "9528": "edipus",
  "9529": " devil",
  "9530": " mathem",
  "9531": " beds",
  "9532": " plead",
  "9533": " attempts",
  "9534": " 65",
  "9535": " intimate",
  "9536": " accusation",
  "9537": " Whenever",
  "9538": " floating",
  "9539": " bravely",
  "9540": "ashes",
  "9541": " quad",
  "9542": " girls",
  "9543": "hell",
  "9544": " treachery",
  "9545": " Et",
  "9546": " convenient",
  "9547": "VII",
  "9548": " chariots",
  "9549": " attacks",
  "9550": " immortality",
  "9551": " rewards",
  "9552": " rein",
  "9553": " gulf",
  "9554": " caius",
  "9555": " Should",
  "9556": " dart",
  "9557": " Joseph",
  "9558": " magnitude",
  "9559": " interior",
  "9560": "elf",
  "9561": "ÏÎ¼",
  "9562": " effic",
  "9563": " raining",
  "9564": " current",
  "9565": "aque",
  "9566": "plex",
  "9567": " pulling",
  "9568": " suppl",
  "9569": "iac",
  "9570": " explored",
  "9571": " exit",
  "9572": "Chor",
  "9573": " Boeot",
  "9574": " Par",
  "9575": "Ready",
  "9576": " pref",
  "9577": " convinced",
  "9578": " labor",
  "9579": " bother",
  "9580": "igen",
  "9581": " xiv",
  "9582": "Per",
  "9583": "Certainly",
  "9584": " particulars",
  "9585": " fanc",
  "9586": " imperfect",
  "9587": "itud",
  "9588": " Were",
  "9589": "ÏÎ¯",
  "9590": " willingly",
  "9591": " consequences",
  "9592": "astery",
  "9593": "ieth",
  "9594": " supper",
  "9595": " explo",
  "9596": " IS",
  "9597": "Î»Î­",
  "9598": "uper",
  "9599": "cts",
  "9600": " standard",
  "9601": " lance",
  "9602": " applaud",
  "9603": "unning",
  "9604": " marvellous",
  "9605": " Thebans",
  "9606": " translated",
  "9607": " forehead",
  "9608": " sails",
  "9609": " Î¿á½Îº",
  "9610": " wooden",
  "9611": " ornaments",
  "9612": " goats",
  "9613": " á¼¡Î¼",
  "9614": " vicinity",
  "9615": " sparkled",
  "9616": " occurs",
  "9617": " Î±á¼",
  "9618": " Goddess",
  "9619": "ÏÎ±Î¹",
  "9620": " marty",
  "9621": " confident",
  "9622": " WH",
  "9623": " flock",
  "9624": " dispos",
  "9625": "Lisa",
  "9626": " VI",
  "9627": "arlie",
  "9628": " ante",
  "9629": "urance",
  "9630": " fairly",
  "9631": "anians",
  "9632": " Romulus",
  "9633": " Fortune",
  "9634": " omitted",
  "9635": " adopt",
  "9636": " groc",
  "9637": "Ad",
  "9638": " soak",
  "9639": " defended",
  "9640": " chirp",
  "9641": " watered",
  "9642": " shades",
  "9643": " perpetual",
  "9644": " sew",
  "9645": " embassy",
  "9646": " Thrac",
  "9647": " profession",
  "9648": " aloud",
  "9649": " whoever",
  "9650": " plans",
  "9651": " Que",
  "9652": "enic",
  "9653": " rip",
  "9654": " cultivated",
  "9655": " oppon",
  "9656": " returns",
  "9657": "lying",
  "9658": " void",
  "9659": " yawned",
  "9660": "looking",
  "9661": "agon",
  "9662": " Nam",
  "9663": "laus",
  "9664": " selling",
  "9665": " hitherto",
  "9666": " exercises",
  "9667": "umque",
  "9668": "aneously",
  "9669": " aqu",
  "9670": " advise",
  "9671": " throng",
  "9672": "Buddy",
  "9673": " cape",
  "9674": " jogged",
  "9675": " offend",
  "9676": " Aesch",
  "9677": " mentions",
  "9678": " corinth",
  "9679": " expectation",
  "9680": " identical",
  "9681": " paying",
  "9682": " snugg",
  "9683": " pliny",
  "9684": " liable",
  "9685": " flapped",
  "9686": " experienced",
  "9687": "mons",
  "9688": "lers",
  "9689": " upright",
  "9690": " harmon",
  "9691": " messengers",
  "9692": " network",
  "9693": " lieuten",
  "9694": " gradually",
  "9695": " arrangement",
  "9696": " truce",
  "9697": " manus",
  "9698": " illa",
  "9699": " Agesilaus",
  "9700": " sixth",
  "9701": "gage",
  "9702": "Emma",
  "9703": " gle",
  "9704": " lip",
  "9705": " abide",
  "9706": " vanish",
  "9707": " Zoomy",
  "9708": " rabbits",
  "9709": " strengthen",
  "9710": " 80",
  "9711": " Hellas",
  "9712": "aping",
  "9713": " Gen",
  "9714": " ignored",
  "9715": " 63",
  "9716": "ogy",
  "9717": " spears",
  "9718": " shovel",
  "9719": " confirmed",
  "9720": " printed",
  "9721": " bumped",
  "9722": " Kiki",
  "9723": "ermans",
  "9724": " transp",
  "9725": " omen",
  "9726": " discussed",
  "9727": " studies",
  "9728": " resurrection",
  "9729": "Cl",
  "9730": " upstairs",
  "9731": "Nor",
  "9732": "agus",
  "9733": " Ã¾inges",
  "9734": " folded",
  "9735": " reigned",
  "9736": " avar",
  "9737": " tyrants",
  "9738": "agger",
  "9739": "oting",
  "9740": " teaches",
  "9741": " sweetheart",
  "9742": " magis",
  "9743": " 77",
  "9744": " vacation",
  "9745": " Ted",
  "9746": " german",
  "9747": " inherit",
  "9748": " deadly",
  "9749": " 75",
  "9750": " commence",
  "9751": " sho",
  "9752": "ha",
  "9753": " dismissed",
  "9754": " Stoics",
  "9755": " strongest",
  "9756": " concluded",
  "9757": "raham",
  "9758": " laure",
  "9759": " floated",
  "9760": " invisible",
  "9761": "astern",
  "9762": " shrugged",
  "9763": " desirable",
  "9764": " Johnny",
  "9765": " New",
  "9766": " Darius",
  "9767": " acorns",
  "9768": " Ill",
  "9769": "elie",
  "9770": " resour",
  "9771": " instruments",
  "9772": " admon",
  "9773": " raising",
  "9774": "ÏÎ³",
  "9775": " threatened",
  "9776": " 100",
  "9777": " locks",
  "9778": "estial",
  "9779": "urgus",
  "9780": "aean",
  "9781": " teachers",
  "9782": " rejected",
  "9783": "neath",
  "9784": " cubits",
  "9785": " Everything",
  "9786": " beforehand",
  "9787": " lucius",
  "9788": " lovers",
  "9789": " plac",
  "9790": " excessive",
  "9791": " Pel",
  "9792": " Dion",
  "9793": "inet",
  "9794": " 76",
  "9795": " epic",
  "9796": " ingredients",
  "9797": "ithridates",
  "9798": " ipse",
  "9799": " despised",
  "9800": " galley",
  "9801": " Iv",
  "9802": " resembles",
  "9803": " Cassius",
  "9804": " aristotle",
  "9805": "endum",
  "9806": " relates",
  "9807": " cato",
  "9808": "oths",
  "9809": "IM",
  "9810": " Once",
  "9811": "piration",
  "9812": " bouncing",
  "9813": "Sc",
  "9814": " War",
  "9815": "ometheus",
  "9816": "lands",
  "9817": " troy",
  "9818": " incap",
  "9819": "TA",
  "9820": " Sil",
  "9821": "ulter",
  "9822": " Ts",
  "9823": " depends",
  "9824": " vines",
  "9825": " drach",
  "9826": " favourable",
  "9827": " Phoc",
  "9828": " seated",
  "9829": " bac",
  "9830": " characteristic",
  "9831": " falsehood",
  "9832": " Vit",
  "9833": " pyth",
  "9834": " Ver",
  "9835": "ural",
  "9836": " confed",
  "9837": "á¿",
  "9838": " catching",
  "9839": " adapted",
  "9840": " flocks",
  "9841": " strawberries",
  "9842": " ulc",
  "9843": " containing",
  "9844": "ooped",
  "9845": " breadth",
  "9846": " Pont",
  "9847": " bloody",
  "9848": " sep",
  "9849": " Meanwhile",
  "9850": " reckoned",
  "9851": "emis",
  "9852": " chiefs",
  "9853": " Odysseus",
  "9854": " practised",
  "9855": "year",
  "9856": " prompt",
  "9857": "hement",
  "9858": " tug",
  "9859": " monarch",
  "9860": " undertake",
  "9861": " inhabited",
  "9862": "Alice",
  "9863": " neighbouring",
  "9864": " Most",
  "9865": " err",
  "9866": " hazard",
  "9867": " beget",
  "9868": " FOR",
  "9869": "ulture",
  "9870": " secured",
  "9871": "Ã©d",
  "9872": "liness",
  "9873": " ost",
  "9874": " peril",
  "9875": "ÏÏ",
  "9876": " Scripture",
  "9877": " ech",
  "9878": " aspect",
  "9879": "esc",
  "9880": "Î½Î±Î¹",
  "9881": " Â·",
  "9882": " observation",
  "9883": " concerns",
  "9884": " cakes",
  "9885": " 64",
  "9886": "rer",
  "9887": "hib",
  "9888": " viz",
  "9889": "ictions",
  "9890": "Ann",
  "9891": " extremity",
  "9892": " monstr",
  "9893": "erat",
  "9894": " drives",
  "9895": " chewed",
  "9896": " smallest",
  "9897": " Death",
  "9898": " memories",
  "9899": " bricks",
  "9900": " capacity",
  "9901": "uisse",
  "9902": "ROPHE",
  "9903": " hercules",
  "9904": " involved",
  "9905": "joined",
  "9906": " stair",
  "9907": " examined",
  "9908": " Saturn",
  "9909": " á½",
  "9910": " Valerius",
  "9911": "..",
  "9912": " Prot",
  "9913": " unequ",
  "9914": " secrets",
  "9915": " sufferings",
  "9916": " scour",
  "9917": "VIII",
  "9918": "rim",
  "9919": " precip",
  "9920": " overthrow",
  "9921": " Life",
  "9922": "vag",
  "9923": " despot",
  "9924": " Â§",
  "9925": " Mummy",
  "9926": " prudent",
  "9927": " major",
  "9928": " Ye",
  "9929": " sandcastle",
  "9930": " scept",
  "9931": "oming",
  "9932": " Î¼Îµ",
  "9933": " vigour",
  "9934": " impiety",
  "9935": " grandfather",
  "9936": " carries",
  "9937": " Sque",
  "9938": " blink",
  "9939": " Trojans",
  "9940": " Turn",
  "9941": " reconc",
  "9942": " equality",
  "9943": " nobis",
  "9944": " artist",
  "9945": "ulum",
  "9946": " wasted",
  "9947": " contempor",
  "9948": " cohorts",
  "9949": " Lilly",
  "9950": "ressed",
  "9951": " plebeian",
  "9952": "works",
  "9953": "ril",
  "9954": " ills",
  "9955": " Ros",
  "9956": "inder",
  "9957": " Lola",
  "9958": "enn",
  "9959": "Ã¦mon",
  "9960": "ugur",
  "9961": "erted",
  "9962": " á¼Î³",
  "9963": " fuit",
  "9964": " Perseus",
  "9965": " injured",
  "9966": "bert",
  "9967": " Whose",
  "9968": "phrod",
  "9969": " advancing",
  "9970": " racing",
  "9971": "Daddy",
  "9972": " Hard",
  "9973": "opolis",
  "9974": "itatem",
  "9975": "itudes",
  "9976": " Sylla",
  "9977": " drinks",
  "9978": " Hoppy",
  "9979": "cont",
  "9980": "uvier",
  "9981": " Sch",
  "9982": " insist",
  "9983": " shameful",
  "9984": " merch",
  "9985": " saith",
  "9986": " hunting",
  "9987": " Stoic",
  "9988": " Soul",
  "9989": " local",
  "9990": "mm",
  "9991": " nightm",
  "9992": " baking",
  "9993": " sovereign",
  "9994": " ubi",
  "9995": " chann",
  "9996": " begotten",
  "9997": " enclosed",
  "9998": " opt",
  "9999": " losing"
}